{
  "version": "1.0",
  "truncation": {
    "direction": "Right",
    "max_length": 128,
    "strategy": "LongestFirst",
    "stride": 0
  },
  "padding": {
    "strategy": {
      "Fixed": 128
    },
    "direction": "Right",
    "pad_to_multiple_of": null,
    "pad_id": 1,
    "pad_type_id": 0,
    "pad_token": "<s>"
  },
  "added_tokens": [
    {
      "id": 0,
      "content": "<pad>",
      "single_word": false,
      "lstrip": false,
      "rstrip": false,
      "normalized": false,
      "special": true
    },
    {
      "id": 1,
      "content": "<s>",
      "single_word": false,
      "lstrip": false,
      "rstrip": false,
      "normalized": false,
      "special": true
    },
    {
      "id": 2,
      "content": "</s>",
      "single_word": false,
      "lstrip": false,
      "rstrip": false,
      "normalized": false,
      "special": true
    },
    {
      "id": 3,
      "content": "<unk>",
      "single_word": false,
      "lstrip": false,
      "rstrip": false,
      "normalized": false,
      "special": true
    },
    {
      "id": 32000,
      "content": "<extra_id_0>",
      "single_word": false,
      "lstrip": false,
      "rstrip": false,
      "normalized": false,
      "special": true
    },
    {
      "id": 32001,
      "content": "<extra_id_1>",
      "single_word": false,
      "lstrip": false,
      "rstrip": false,
      "normalized": false,
      "special": true
    },
    {
      "id": 32002,
      "content": "<extra_id_2>",
      "single_word": false,
      "lstrip": false,
      "rstrip": false,
      "normalized": false,
      "special": true
    },
    {
      "id": 32003,
      "content": "<extra_id_3>",
      "single_word": false,
      "lstrip": false,
      "rstrip": false,
      "normalized": false,
      "special": true
    },
    {
      "id": 32004,
      "content": "<extra_id_4>",
      "single_word": false,
      "lstrip": false,
      "rstrip": false,
      "normalized": false,
      "special": true
    },
    {
      "id": 32005,
      "content": "<extra_id_5>",
      "single_word": false,
      "lstrip": false,
      "rstrip": false,
      "normalized": false,
      "special": true
    },
    {
      "id": 32006,
      "content": "<extra_id_6>",
      "single_word": false,
      "lstrip": false,
      "rstrip": false,
      "normalized": false,
      "special": true
    },
    {
      "id": 32007,
      "content": "<extra_id_7>",
      "single_word": false,
      "lstrip": false,
      "rstrip": false,
      "normalized": false,
      "special": true
    },
    {
      "id": 32008,
      "content": "<extra_id_8>",
      "single_word": false,
      "lstrip": false,
      "rstrip": false,
      "normalized": false,
      "special": true
    },
    {
      "id": 32009,
      "content": "<extra_id_9>",
      "single_word": false,
      "lstrip": false,
      "rstrip": false,
      "normalized": false,
      "special": true
    },
    {
      "id": 32010,
      "content": "<extra_id_10>",
      "single_word": false,
      "lstrip": false,
      "rstrip": false,
      "normalized": false,
      "special": true
    },
    {
      "id": 32011,
      "content": "<extra_id_11>",
      "single_word": false,
      "lstrip": false,
      "rstrip": false,
      "normalized": false,
      "special": true
    },
    {
      "id": 32012,
      "content": "<extra_id_12>",
      "single_word": false,
      "lstrip": false,
      "rstrip": false,
      "normalized": false,
      "special": true
    },
    {
      "id": 32013,
      "content": "<extra_id_13>",
      "single_word": false,
      "lstrip": false,
      "rstrip": false,
      "normalized": false,
      "special": true
    },
    {
      "id": 32014,
      "content": "<extra_id_14>",
      "single_word": false,
      "lstrip": false,
      "rstrip": false,
      "normalized": false,
      "special": true
    },
    {
      "id": 32015,
      "content": "<extra_id_15>",
      "single_word": false,
      "lstrip": false,
      "rstrip": false,
      "normalized": false,
      "special": true
    },
    {
      "id": 32016,
      "content": "<extra_id_16>",
      "single_word": false,
      "lstrip": false,
      "rstrip": false,
      "normalized": false,
      "special": true
    },
    {
      "id": 32017,
      "content": "<extra_id_17>",
      "single_word": false,
      "lstrip": false,
      "rstrip": false,
      "normalized": false,
      "special": true
    },
    {
      "id": 32018,
      "content": "<extra_id_18>",
      "single_word": false,
      "lstrip": false,
      "rstrip": false,
      "normalized": false,
      "special": true
    },
    {
      "id": 32019,
      "content": "<extra_id_19>",
      "single_word": false,
      "lstrip": false,
      "rstrip": false,
      "normalized": false,
      "special": true
    },
    {
      "id": 32020,
      "content": "<extra_id_20>",
      "single_word": false,
      "lstrip": false,
      "rstrip": false,
      "normalized": false,
      "special": true
    },
    {
      "id": 32021,
      "content": "<extra_id_21>",
      "single_word": false,
      "lstrip": false,
      "rstrip": false,
      "normalized": false,
      "special": true
    },
    {
      "id": 32022,
      "content": "<extra_id_22>",
      "single_word": false,
      "lstrip": false,
      "rstrip": false,
      "normalized": false,
      "special": true
    },
    {
      "id": 32023,
      "content": "<extra_id_23>",
      "single_word": false,
      "lstrip": false,
      "rstrip": false,
      "normalized": false,
      "special": true
    },
    {
      "id": 32024,
      "content": "<extra_id_24>",
      "single_word": false,
      "lstrip": false,
      "rstrip": false,
      "normalized": false,
      "special": true
    },
    {
      "id": 32025,
      "content": "<extra_id_25>",
      "single_word": false,
      "lstrip": false,
      "rstrip": false,
      "normalized": false,
      "special": true
    },
    {
      "id": 32026,
      "content": "<extra_id_26>",
      "single_word": false,
      "lstrip": false,
      "rstrip": false,
      "normalized": false,
      "special": true
    },
    {
      "id": 32027,
      "content": "<extra_id_27>",
      "single_word": false,
      "lstrip": false,
      "rstrip": false,
      "normalized": false,
      "special": true
    },
    {
      "id": 32028,
      "content": "<extra_id_28>",
      "single_word": false,
      "lstrip": false,
      "rstrip": false,
      "normalized": false,
      "special": true
    },
    {
      "id": 32029,
      "content": "<extra_id_29>",
      "single_word": false,
      "lstrip": false,
      "rstrip": false,
      "normalized": false,
      "special": true
    },
    {
      "id": 32030,
      "content": "<extra_id_30>",
      "single_word": false,
      "lstrip": false,
      "rstrip": false,
      "normalized": false,
      "special": true
    },
    {
      "id": 32031,
      "content": "<extra_id_31>",
      "single_word": false,
      "lstrip": false,
      "rstrip": false,
      "normalized": false,
      "special": true
    },
    {
      "id": 32032,
      "content": "<extra_id_32>",
      "single_word": false,
      "lstrip": false,
      "rstrip": false,
      "normalized": false,
      "special": true
    },
    {
      "id": 32033,
      "content": "<extra_id_33>",
      "single_word": false,
      "lstrip": false,
      "rstrip": false,
      "normalized": false,
      "special": true
    },
    {
      "id": 32034,
      "content": "<extra_id_34>",
      "single_word": false,
      "lstrip": false,
      "rstrip": false,
      "normalized": false,
      "special": true
    },
    {
      "id": 32035,
      "content": "<extra_id_35>",
      "single_word": false,
      "lstrip": false,
      "rstrip": false,
      "normalized": false,
      "special": true
    },
    {
      "id": 32036,
      "content": "<extra_id_36>",
      "single_word": false,
      "lstrip": false,
      "rstrip": false,
      "normalized": false,
      "special": true
    },
    {
      "id": 32037,
      "content": "<extra_id_37>",
      "single_word": false,
      "lstrip": false,
      "rstrip": false,
      "normalized": false,
      "special": true
    },
    {
      "id": 32038,
      "content": "<extra_id_38>",
      "single_word": false,
      "lstrip": false,
      "rstrip": false,
      "normalized": false,
      "special": true
    },
    {
      "id": 32039,
      "content": "<extra_id_39>",
      "single_word": false,
      "lstrip": false,
      "rstrip": false,
      "normalized": false,
      "special": true
    },
    {
      "id": 32040,
      "content": "<extra_id_40>",
      "single_word": false,
      "lstrip": false,
      "rstrip": false,
      "normalized": false,
      "special": true
    },
    {
      "id": 32041,
      "content": "<extra_id_41>",
      "single_word": false,
      "lstrip": false,
      "rstrip": false,
      "normalized": false,
      "special": true
    },
    {
      "id": 32042,
      "content": "<extra_id_42>",
      "single_word": false,
      "lstrip": false,
      "rstrip": false,
      "normalized": false,
      "special": true
    },
    {
      "id": 32043,
      "content": "<extra_id_43>",
      "single_word": false,
      "lstrip": false,
      "rstrip": false,
      "normalized": false,
      "special": true
    },
    {
      "id": 32044,
      "content": "<extra_id_44>",
      "single_word": false,
      "lstrip": false,
      "rstrip": false,
      "normalized": false,
      "special": true
    },
    {
      "id": 32045,
      "content": "<extra_id_45>",
      "single_word": false,
      "lstrip": false,
      "rstrip": false,
      "normalized": false,
      "special": true
    },
    {
      "id": 32046,
      "content": "<extra_id_46>",
      "single_word": false,
      "lstrip": false,
      "rstrip": false,
      "normalized": false,
      "special": true
    },
    {
      "id": 32047,
      "content": "<extra_id_47>",
      "single_word": false,
      "lstrip": false,
      "rstrip": false,
      "normalized": false,
      "special": true
    },
    {
      "id": 32048,
      "content": "<extra_id_48>",
      "single_word": false,
      "lstrip": false,
      "rstrip": false,
      "normalized": false,
      "special": true
    },
    {
      "id": 32049,
      "content": "<extra_id_49>",
      "single_word": false,
      "lstrip": false,
      "rstrip": false,
      "normalized": false,
      "special": true
    },
    {
      "id": 32050,
      "content": "<extra_id_50>",
      "single_word": false,
      "lstrip": false,
      "rstrip": false,
      "normalized": false,
      "special": true
    },
    {
      "id": 32051,
      "content": "<extra_id_51>",
      "single_word": false,
      "lstrip": false,
      "rstrip": false,
      "normalized": false,
      "special": true
    },
    {
      "id": 32052,
      "content": "<extra_id_52>",
      "single_word": false,
      "lstrip": false,
      "rstrip": false,
      "normalized": false,
      "special": true
    },
    {
      "id": 32053,
      "content": "<extra_id_53>",
      "single_word": false,
      "lstrip": false,
      "rstrip": false,
      "normalized": false,
      "special": true
    },
    {
      "id": 32054,
      "content": "<extra_id_54>",
      "single_word": false,
      "lstrip": false,
      "rstrip": false,
      "normalized": false,
      "special": true
    },
    {
      "id": 32055,
      "content": "<extra_id_55>",
      "single_word": false,
      "lstrip": false,
      "rstrip": false,
      "normalized": false,
      "special": true
    },
    {
      "id": 32056,
      "content": "<extra_id_56>",
      "single_word": false,
      "lstrip": false,
      "rstrip": false,
      "normalized": false,
      "special": true
    },
    {
      "id": 32057,
      "content": "<extra_id_57>",
      "single_word": false,
      "lstrip": false,
      "rstrip": false,
      "normalized": false,
      "special": true
    },
    {
      "id": 32058,
      "content": "<extra_id_58>",
      "single_word": false,
      "lstrip": false,
      "rstrip": false,
      "normalized": false,
      "special": true
    },
    {
      "id": 32059,
      "content": "<extra_id_59>",
      "single_word": false,
      "lstrip": false,
      "rstrip": false,
      "normalized": false,
      "special": true
    },
    {
      "id": 32060,
      "content": "<extra_id_60>",
      "single_word": false,
      "lstrip": false,
      "rstrip": false,
      "normalized": false,
      "special": true
    },
    {
      "id": 32061,
      "content": "<extra_id_61>",
      "single_word": false,
      "lstrip": false,
      "rstrip": false,
      "normalized": false,
      "special": true
    },
    {
      "id": 32062,
      "content": "<extra_id_62>",
      "single_word": false,
      "lstrip": false,
      "rstrip": false,
      "normalized": false,
      "special": true
    },
    {
      "id": 32063,
      "content": "<extra_id_63>",
      "single_word": false,
      "lstrip": false,
      "rstrip": false,
      "normalized": false,
      "special": true
    },
    {
      "id": 32064,
      "content": "<extra_id_64>",
      "single_word": false,
      "lstrip": false,
      "rstrip": false,
      "normalized": false,
      "special": true
    },
    {
      "id": 32065,
      "content": "<extra_id_65>",
      "single_word": false,
      "lstrip": false,
      "rstrip": false,
      "normalized": false,
      "special": true
    },
    {
      "id": 32066,
      "content": "<extra_id_66>",
      "single_word": false,
      "lstrip": false,
      "rstrip": false,
      "normalized": false,
      "special": true
    },
    {
      "id": 32067,
      "content": "<extra_id_67>",
      "single_word": false,
      "lstrip": false,
      "rstrip": false,
      "normalized": false,
      "special": true
    },
    {
      "id": 32068,
      "content": "<extra_id_68>",
      "single_word": false,
      "lstrip": false,
      "rstrip": false,
      "normalized": false,
      "special": true
    },
    {
      "id": 32069,
      "content": "<extra_id_69>",
      "single_word": false,
      "lstrip": false,
      "rstrip": false,
      "normalized": false,
      "special": true
    },
    {
      "id": 32070,
      "content": "<extra_id_70>",
      "single_word": false,
      "lstrip": false,
      "rstrip": false,
      "normalized": false,
      "special": true
    },
    {
      "id": 32071,
      "content": "<extra_id_71>",
      "single_word": false,
      "lstrip": false,
      "rstrip": false,
      "normalized": false,
      "special": true
    },
    {
      "id": 32072,
      "content": "<extra_id_72>",
      "single_word": false,
      "lstrip": false,
      "rstrip": false,
      "normalized": false,
      "special": true
    },
    {
      "id": 32073,
      "content": "<extra_id_73>",
      "single_word": false,
      "lstrip": false,
      "rstrip": false,
      "normalized": false,
      "special": true
    },
    {
      "id": 32074,
      "content": "<extra_id_74>",
      "single_word": false,
      "lstrip": false,
      "rstrip": false,
      "normalized": false,
      "special": true
    },
    {
      "id": 32075,
      "content": "<extra_id_75>",
      "single_word": false,
      "lstrip": false,
      "rstrip": false,
      "normalized": false,
      "special": true
    },
    {
      "id": 32076,
      "content": "<extra_id_76>",
      "single_word": false,
      "lstrip": false,
      "rstrip": false,
      "normalized": false,
      "special": true
    },
    {
      "id": 32077,
      "content": "<extra_id_77>",
      "single_word": false,
      "lstrip": false,
      "rstrip": false,
      "normalized": false,
      "special": true
    },
    {
      "id": 32078,
      "content": "<extra_id_78>",
      "single_word": false,
      "lstrip": false,
      "rstrip": false,
      "normalized": false,
      "special": true
    },
    {
      "id": 32079,
      "content": "<extra_id_79>",
      "single_word": false,
      "lstrip": false,
      "rstrip": false,
      "normalized": false,
      "special": true
    },
    {
      "id": 32080,
      "content": "<extra_id_80>",
      "single_word": false,
      "lstrip": false,
      "rstrip": false,
      "normalized": false,
      "special": true
    },
    {
      "id": 32081,
      "content": "<extra_id_81>",
      "single_word": false,
      "lstrip": false,
      "rstrip": false,
      "normalized": false,
      "special": true
    },
    {
      "id": 32082,
      "content": "<extra_id_82>",
      "single_word": false,
      "lstrip": false,
      "rstrip": false,
      "normalized": false,
      "special": true
    },
    {
      "id": 32083,
      "content": "<extra_id_83>",
      "single_word": false,
      "lstrip": false,
      "rstrip": false,
      "normalized": false,
      "special": true
    },
    {
      "id": 32084,
      "content": "<extra_id_84>",
      "single_word": false,
      "lstrip": false,
      "rstrip": false,
      "normalized": false,
      "special": true
    },
    {
      "id": 32085,
      "content": "<extra_id_85>",
      "single_word": false,
      "lstrip": false,
      "rstrip": false,
      "normalized": false,
      "special": true
    },
    {
      "id": 32086,
      "content": "<extra_id_86>",
      "single_word": false,
      "lstrip": false,
      "rstrip": false,
      "normalized": false,
      "special": true
    },
    {
      "id": 32087,
      "content": "<extra_id_87>",
      "single_word": false,
      "lstrip": false,
      "rstrip": false,
      "normalized": false,
      "special": true
    },
    {
      "id": 32088,
      "content": "<extra_id_88>",
      "single_word": false,
      "lstrip": false,
      "rstrip": false,
      "normalized": false,
      "special": true
    },
    {
      "id": 32089,
      "content": "<extra_id_89>",
      "single_word": false,
      "lstrip": false,
      "rstrip": false,
      "normalized": false,
      "special": true
    },
    {
      "id": 32090,
      "content": "<extra_id_90>",
      "single_word": false,
      "lstrip": false,
      "rstrip": false,
      "normalized": false,
      "special": true
    },
    {
      "id": 32091,
      "content": "<extra_id_91>",
      "single_word": false,
      "lstrip": false,
      "rstrip": false,
      "normalized": false,
      "special": true
    },
    {
      "id": 32092,
      "content": "<extra_id_92>",
      "single_word": false,
      "lstrip": false,
      "rstrip": false,
      "normalized": false,
      "special": true
    },
    {
      "id": 32093,
      "content": "<extra_id_93>",
      "single_word": false,
      "lstrip": false,
      "rstrip": false,
      "normalized": false,
      "special": true
    },
    {
      "id": 32094,
      "content": "<extra_id_94>",
      "single_word": false,
      "lstrip": false,
      "rstrip": false,
      "normalized": false,
      "special": true
    },
    {
      "id": 32095,
      "content": "<extra_id_95>",
      "single_word": false,
      "lstrip": false,
      "rstrip": false,
      "normalized": false,
      "special": true
    },
    {
      "id": 32096,
      "content": "<extra_id_96>",
      "single_word": false,
      "lstrip": false,
      "rstrip": false,
      "normalized": false,
      "special": true
    },
    {
      "id": 32097,
      "content": "<extra_id_97>",
      "single_word": false,
      "lstrip": false,
      "rstrip": false,
      "normalized": false,
      "special": true
    },
    {
      "id": 32098,
      "content": "<extra_id_98>",
      "single_word": false,
      "lstrip": false,
      "rstrip": false,
      "normalized": false,
      "special": true
    },
    {
      "id": 32099,
      "content": "<extra_id_99>",
      "single_word": false,
      "lstrip": false,
      "rstrip": false,
      "normalized": false,
      "special": true
    }
  ],
  "normalizer": null,
  "pre_tokenizer": {
    "type": "ByteLevel",
    "add_prefix_space": true,
    "trim_offsets": true,
    "use_regex": true
  },
  "post_processor": {
    "type": "ByteLevel",
    "add_prefix_space": true,
    "trim_offsets": false,
    "use_regex": true
  },
  "decoder": {
    "type": "ByteLevel",
    "add_prefix_space": true,
    "trim_offsets": true,
    "use_regex": true
  },
  "model": {
    "type": "BPE",
    "dropout": null,
    "unk_token": null,
    "continuing_subword_prefix": null,
    "end_of_word_suffix": null,
    "fuse_unk": false,
    "byte_fallback": false,
    "ignore_merges": false,
    "vocab": {
      "<pad>": 0,
      "<s>": 1,
      "</s>": 2,
      "<unk>": 3,
      "!": 4,
      "\"": 5,
      "#": 6,
      "$": 7,
      "%": 8,
      "&": 9,
      "'": 10,
      "(": 11,
      ")": 12,
      "*": 13,
      "+": 14,
      ",": 15,
      "-": 16,
      ".": 17,
      "/": 18,
      "0": 19,
      "1": 20,
      "2": 21,
      "3": 22,
      "4": 23,
      "5": 24,
      "6": 25,
      "7": 26,
      "8": 27,
      "9": 28,
      ":": 29,
      ";": 30,
      "<": 31,
      "=": 32,
      ">": 33,
      "?": 34,
      "@": 35,
      "A": 36,
      "B": 37,
      "C": 38,
      "D": 39,
      "E": 40,
      "F": 41,
      "G": 42,
      "H": 43,
      "I": 44,
      "J": 45,
      "K": 46,
      "L": 47,
      "M": 48,
      "N": 49,
      "O": 50,
      "P": 51,
      "Q": 52,
      "R": 53,
      "S": 54,
      "T": 55,
      "U": 56,
      "V": 57,
      "W": 58,
      "X": 59,
      "Y": 60,
      "Z": 61,
      "[": 62,
      "\\": 63,
      "]": 64,
      "^": 65,
      "_": 66,
      "`": 67,
      "a": 68,
      "b": 69,
      "c": 70,
      "d": 71,
      "e": 72,
      "f": 73,
      "g": 74,
      "h": 75,
      "i": 76,
      "j": 77,
      "k": 78,
      "l": 79,
      "m": 80,
      "n": 81,
      "o": 82,
      "p": 83,
      "q": 84,
      "r": 85,
      "s": 86,
      "t": 87,
      "u": 88,
      "v": 89,
      "w": 90,
      "x": 91,
      "y": 92,
      "z": 93,
      "{": 94,
      "|": 95,
      "}": 96,
      "~": 97,
      "¡": 98,
      "¢": 99,
      "£": 100,
      "¤": 101,
      "¥": 102,
      "¦": 103,
      "§": 104,
      "¨": 105,
      "©": 106,
      "ª": 107,
      "«": 108,
      "¬": 109,
      "®": 110,
      "¯": 111,
      "°": 112,
      "±": 113,
      "²": 114,
      "³": 115,
      "´": 116,
      "µ": 117,
      "¶": 118,
      "·": 119,
      "¸": 120,
      "¹": 121,
      "º": 122,
      "»": 123,
      "¼": 124,
      "½": 125,
      "¾": 126,
      "¿": 127,
      "À": 128,
      "Á": 129,
      "Â": 130,
      "Ã": 131,
      "Ä": 132,
      "Å": 133,
      "Æ": 134,
      "Ç": 135,
      "È": 136,
      "É": 137,
      "Ê": 138,
      "Ë": 139,
      "Ì": 140,
      "Í": 141,
      "Î": 142,
      "Ï": 143,
      "Ð": 144,
      "Ñ": 145,
      "Ò": 146,
      "Ó": 147,
      "Ô": 148,
      "Õ": 149,
      "Ö": 150,
      "×": 151,
      "Ø": 152,
      "Ù": 153,
      "Ú": 154,
      "Û": 155,
      "Ü": 156,
      "Ý": 157,
      "Þ": 158,
      "ß": 159,
      "à": 160,
      "á": 161,
      "â": 162,
      "ã": 163,
      "ä": 164,
      "å": 165,
      "æ": 166,
      "ç": 167,
      "è": 168,
      "é": 169,
      "ê": 170,
      "ë": 171,
      "ì": 172,
      "í": 173,
      "î": 174,
      "ï": 175,
      "ð": 176,
      "ñ": 177,
      "ò": 178,
      "ó": 179,
      "ô": 180,
      "õ": 181,
      "ö": 182,
      "÷": 183,
      "ø": 184,
      "ù": 185,
      "ú": 186,
      "û": 187,
      "ü": 188,
      "ý": 189,
      "þ": 190,
      "ÿ": 191,
      "Ā": 192,
      "ā": 193,
      "Ă": 194,
      "ă": 195,
      "Ą": 196,
      "ą": 197,
      "Ć": 198,
      "ć": 199,
      "Ĉ": 200,
      "ĉ": 201,
      "Ċ": 202,
      "ċ": 203,
      "Č": 204,
      "č": 205,
      "Ď": 206,
      "ď": 207,
      "Đ": 208,
      "đ": 209,
      "Ē": 210,
      "ē": 211,
      "Ĕ": 212,
      "ĕ": 213,
      "Ė": 214,
      "ė": 215,
      "Ę": 216,
      "ę": 217,
      "Ě": 218,
      "ě": 219,
      "Ĝ": 220,
      "ĝ": 221,
      "Ğ": 222,
      "ğ": 223,
      "Ġ": 224,
      "ġ": 225,
      "Ģ": 226,
      "ģ": 227,
      "Ĥ": 228,
      "ĥ": 229,
      "Ħ": 230,
      "ħ": 231,
      "Ĩ": 232,
      "ĩ": 233,
      "Ī": 234,
      "ī": 235,
      "Ĭ": 236,
      "ĭ": 237,
      "Į": 238,
      "į": 239,
      "İ": 240,
      "ı": 241,
      "Ĳ": 242,
      "ĳ": 243,
      "Ĵ": 244,
      "ĵ": 245,
      "Ķ": 246,
      "ķ": 247,
      "ĸ": 248,
      "Ĺ": 249,
      "ĺ": 250,
      "Ļ": 251,
      "ļ": 252,
      "Ľ": 253,
      "ľ": 254,
      "Ŀ": 255,
      "ŀ": 256,
      "Ł": 257,
      "ł": 258,
      "Ń": 259,
      "an": 260,
      "er": 261,
      "en": 262,
      "à®": 263,
      "Ġd": 264,
      "Ġt": 265,
      "at": 266,
      "in": 267,
      "ar": 268,
      "Ġs": 269,
      "Ġm": 270,
      "la": 271,
      "ang": 272,
      "Ġp": 273,
      "Ġb": 274,
      "ak": 275,
      "Ġk": 276,
      "as": 277,
      "ah": 278,
      "it": 279,
      "em": 280,
      "un": 281,
      "al": 282,
      "à¯": 283,
      "on": 284,
      "ad": 285,
      "am": 286,
      "or": 287,
      "es": 288,
      "is": 289,
      "kan": 290,
      "ĠP": 291,
      "ĠS": 292,
      "eng": 293,
      ",,": 294,
      "Ġdi": 295,
      "ya": 296,
      "el": 297,
      "ĠA": 298,
      "ing": 299,
      "âĢ": 300,
      "Ġy": 301,
      "Ġth": 302,
      "ala": 303,
      "ĠM": 304,
      "ap": 305,
      "ur": 306,
      "ï¼": 307,
      "20": 308,
      "ed": 309,
      "à¯į": 310,
      "ti": 311,
      "ĊĊ": 312,
      "Ġyang": 313,
      "us": 314,
      "ĠT": 315,
      "uk": 316,
      "Ġse": 317,
      "ai": 318,
      "AT": 319,
      "Ġh": 320,
      "and": 321,
      "ä¸": 322,
      "Ġdan": 323,
      "Ġc": 324,
      "Ġin": 325,
      "ĠĠ": 326,
      "ut": 327,
      "le": 328,
      "Ġo": 329,
      "ĠB": 330,
      "Ġthe": 331,
      "ĠK": 332,
      "ik": 333,
      "Ġber": 334,
      "id": 335,
      "ag": 336,
      "Ġw": 337,
      "Ġ1": 338,
      "il": 339,
      ";;": 340,
      "Ġr": 341,
      "Ġà®": 342,
      "um": 343,
      "Ġke": 344,
      "ada": 345,
      "ent": 346,
      "AN": 347,
      "Ġf": 348,
      "TT": 349,
      "Ġmen": 350,
      "et": 351,
      "Ġ(": 352,
      "ul": 353,
      "ï¼Į": 354,
      "ĠI": 355,
      "om": 356,
      "ĠD": 357,
      "Ġn": 358,
      "ia": 359,
      "ek": 360,
      "ir": 361,
      "akan": 362,
      "00": 363,
      "à¨": 364,
      "Ġper": 365,
      "AA": 366,
      "ela": 367,
      ",,,,": 368,
      "ĠC": 369,
      "ab": 370,
      "emb": 371,
      "¿½": 372,
      "im": 373,
      "ãĢ": 374,
      "Ġand": 375,
      "ER": 376,
      "ï¿½": 377,
      "äº": 378,
      "ro": 379,
      "ari": 380,
      "Ġj": 381,
      "ĠO": 382,
      "ĠR": 383,
      "Ġa": 384,
      "Ġof": 385,
      "Ġter": 386,
      "201": 387,
      "ih": 388,
      "ic": 389,
      "Ġto": 390,
      "ara": 391,
      "alam": 392,
      "ĠN": 393,
      "__": 394,
      "IN": 395,
      "Ġl": 396,
      "à®¿": 397,
      "à¯ģ": 398,
      "ion": 399,
      "eb": 400,
      "unt": 401,
      "ud": 402,
      "nya": 403,
      "ga": 404,
      "çļ": 405,
      "ol": 406,
      "åı": 407,
      "engan": 408,
      "çļĦ": 409,
      "ĠH": 410,
      "Ġ2": 411,
      "ung": 412,
      "ĠL": 413,
      "ata": 414,
      "GC": 415,
      "à®ķ": 416,
      "Ġmeng": 417,
      "Ġg": 418,
      "ec": 419,
      "ian": 420,
      "æľ": 421,
      "ĠJ": 422,
      "à®¤": 423,
      "ĠF": 424,
      "up": 425,
      "ac": 426,
      "aw": 427,
      "..": 428,
      "end": 429,
      "per": 430,
      "Ġla": 431,
      "ï¿½ï¿½": 432,
      "eg": 433,
      "aj": 434,
      "Ġit": 435,
      "Ġdengan": 436,
      "untuk": 437,
      "aya": 438,
      "AC": 439,
      "ter": 440,
      "os": 441,
      "atan": 442,
      "ot": 443,
      "å¤": 444,
      ";;;;": 445,
      "aan": 446,
      "Ġini": 447,
      "ep": 448,
      "Ġuntuk": 449,
      "Ġdalam": 450,
      "AR": 451,
      "Âł": 452,
      "ä»": 453,
      "uh": 454,
      "alah": 455,
      "lah": 456,
      "ant": 457,
      "âĢľ": 458,
      "GG": 459,
      "Ġ3": 460,
      "tr": 461,
      "leh": 462,
      "âĢĿ": 463,
      "Ġseb": 464,
      "ãĢĤ": 465,
      "angan": 466,
      "EN": 467,
      "ay": 468,
      "ĠG": 469,
      "åĲ": 470,
      "ers": 471,
      "Ġmem": 472,
      "ES": 473,
      "åħ": 474,
      "à®°": 475,
      "ĠW": 476,
      "çĶ": 477,
      "ub": 478,
      "å¥": 479,
      "AL": 480,
      "à®Ł": 481,
      "uan": 482,
      "à®¾": 483,
      "ok": 484,
      "ĠE": 485,
      "asa": 486,
      "ama": 487,
      ",,,,,,,,": 488,
      "è¿": 489,
      "ation": 490,
      "pada": 491,
      "Ġdari": 492,
      "ĠU": 493,
      "idak": 494,
      "asi": 495,
      "å®": 496,
      "Ġad": 497,
      "Ġis": 498,
      "æĺ": 499,
      "ukan": 500,
      "eri": 501,
      "ĊĊĊ": 502,
      "si": 503,
      "Ġ0": 504,
      "he": 505,
      "10": 506,
      "ana": 507,
      "Ġitu": 508,
      "åĪ": 509,
      "Ġmer": 510,
      "TC": 511,
      "AG": 512,
      "re": 513,
      "ta": 514,
      "Ġtidak": 515,
      "ib": 516,
      "ä½": 517,
      "23": 518,
      "Ġor": 519,
      "Ġe": 520,
      "Ø§": 521,
      "ï¼ģ": 522,
      "iv": 523,
      "____": 524,
      "ig": 525,
      "Ġmemb": 526,
      "ow": 527,
      "à®ª": 528,
      "âĢĻ": 529,
      "ua": 530,
      "19": 531,
      "Ġpada": 532,
      "od": 533,
      "gi": 534,
      "ong": 535,
      "åľ": 536,
      "Ġfor": 537,
      "ys": 538,
      "ita": 539,
      "ĠIn": 540,
      "ä¹": 541,
      "OR": 542,
      "aran": 543,
      "Ġpen": 544,
      "apat": 545,
      "adi": 546,
      "ED": 547,
      "emp": 548,
      "Ġpro": 549,
      "à®©": 550,
      "à®®": 551,
      "Ġle": 552,
      "à®²": 553,
      "ON": 554,
      "å°": 555,
      "æĪ": 556,
      "Ġ4": 557,
      "è¯": 558,
      "æĸ": 559,
      "amp": 560,
      "æĺ¯": 561,
      "Ġan": 562,
      "ch": 563,
      "Ġon": 564,
      "--": 565,
      "uat": 566,
      "åŃ": 567,
      "ce": 568,
      "æĹ": 569,
      "ING": 570,
      "Ġà¨": 571,
      "amb": 572,
      "oh": 573,
      "Ġas": 574,
      "Ġal": 575,
      "agai": 576,
      "ew": 577,
      "ila": 578,
      "ip": 579,
      "11": 580,
      "TI": 581,
      "Ġ20": 582,
      "ç»": 583,
      "ly": 584,
      "ä¸į": 585,
      "Ġv": 586,
      "elah": 587,
      "è®": 588,
      ",\"": 589,
      "if": 590,
      "lu": 591,
      "Ġker": 592,
      "Ġpeng": 593,
      "ä¸Ģ": 594,
      "Ġak": 595,
      "à®±": 596,
      "alan": 597,
      "Ġ-": 598,
      "ĠâĢ": 599,
      "à©": 600,
      "05": 601,
      "Ġ5": 602,
      "Ġakan": 603,
      "th": 604,
      "anya": 605,
      "AH": 606,
      "AAT": 607,
      "åĽ": 608,
      "ahan": 609,
      "ith": 610,
      "à®³": 611,
      "apa": 612,
      "à¯Ī": 613,
      "CC": 614,
      "eka": 615,
      "Ġadalah": 616,
      "21": 617,
      "Ġar": 618,
      "Ġbe": 619,
      "atau": 620,
      "ĊĠ": 621,
      "TG": 622,
      "TH": 623,
      "ĠPer": 624,
      "ĠY": 625,
      "ula": 626,
      "ND": 627,
      "Ġkepada": 628,
      "Ġat": 629,
      "Ġ201": 630,
      "ve": 631,
      "alays": 632,
      "à®¯": 633,
      "AS": 634,
      "ĠOR": 635,
      "AM": 636,
      "iti": 637,
      "æī": 638,
      "Ùİ": 639,
      "ka": 640,
      "äºĨ": 641,
      "ess": 642,
      "tion": 643,
      "oleh": 644,
      "ÙĦ": 645,
      "agi": 646,
      "Ġatau": 647,
      "st": 648,
      "op": 649,
      "Ġsem": 650,
      "à®µ": 651,
      "ind": 652,
      "ber": 653,
      "Ġmas": 654,
      "å¼": 655,
      "25": 656,
      "äºº": 657,
      "å¾": 658,
      "Ġju": 659,
      "Ġst": 660,
      "est": 661,
      "æĿ": 662,
      "ain": 663,
      "åĩ": 664,
      "ä¼": 665,
      "Ġwh": 666,
      "Ġwith": 667,
      "Ġtah": 668,
      "å¥³": 669,
      "af": 670,
      "und": 671,
      "Ġmenj": 672,
      "alaysia": 673,
      "ku": 674,
      "Ġ6": 675,
      "å¹": 676,
      "Ġthat": 677,
      "Ġbah": 678,
      "EL": 679,
      "22": 680,
      "ĠAND": 681,
      "for": 682,
      "EM": 683,
      "Ġdis": 684,
      "uj": 685,
      "omp": 686,
      "any": 687,
      "æľī": 688,
      "Ġsaya": 689,
      "uar": 690,
      "Ġoleh": 691,
      "ri": 692,
      "åĬ": 693,
      "ate": 694,
      "Ġmeny": 695,
      "our": 696,
      "12": 697,
      "å¸": 698,
      "ali": 699,
      "Ġada": 700,
      "),": 701,
      "ill": 702,
      "åį": 703,
      "Ġtelah": 704,
      "åľ¨": 705,
      "ĠOF": 706,
      "Ġmereka": 707,
      "Ġcon": 708,
      "ÙĬ": 709,
      "ebut": 710,
      "uc": 711,
      "15": 712,
      "ou": 713,
      "...": 714,
      "Ġjuga": 715,
      "UR": 716,
      "14": 717,
      "Ġsek": 718,
      "ĠAl": 719,
      "\",": 720,
      "ç½": 721,
      "Ġ7": 722,
      "æĥ": 723,
      "Ġ:": 724,
      "IL": 725,
      "ĠMalaysia": 726,
      "13": 727,
      "Ġberk": 728,
      "api": 729,
      "ĠØ": 730,
      "ver": 731,
      "oc": 732,
      "16": 733,
      ";;;;;;;;": 734,
      "ï¿½ï¿½ï¿½ï¿½": 735,
      "TAT": 736,
      "Ġkita": 737,
      "Ġtak": 738,
      "ANG": 739,
      "ht": 740,
      "åŃĲ": 741,
      "Ġmak": 742,
      "Ġorang": 743,
      "int": 744,
      "å·": 745,
      "IC": 746,
      "og": 747,
      "bih": 748,
      "ãĢĢ": 749,
      "US": 750,
      "IS": 751,
      "atu": 752,
      "lam": 753,
      "angg": 754,
      "âĢ¢": 755,
      "ÙĨ": 756,
      "å¯": 757,
      "orang": 758,
      "30": 759,
      "ist": 760,
      "ami": 761,
      "ĠâĢľ": 762,
      "ard": 763,
      "ity": 764,
      ").": 765,
      "gun": 766,
      "itu": 767,
      "èµ": 768,
      "Ġpr": 769,
      "Ġters": 770,
      "Ġser": 771,
      "å¿": 772,
      "Ġkes": 773,
      "imp": 774,
      "anj": 775,
      "ort": 776,
      "24": 777,
      "ĠV": 778,
      "ÙĪ": 779,
      "è¡": 780,
      "Ġdib": 781,
      "________": 782,
      "AD": 783,
      "èĢ": 784,
      "ram": 785,
      "ikan": 786,
      "Ġbagi": 787,
      "ment": 788,
      "THER": 789,
      "angk": 790,
      "Ùħ": 791,
      "éĥ": 792,
      "ĠAn": 793,
      "Ġre": 794,
      "18": 795,
      "è§": 796,
      "ç½ĳ": 797,
      "AK": 798,
      "åĮ": 799,
      "éĢ": 800,
      "elak": 801,
      "Ġdia": 802,
      "aik": 803,
      "2023": 804,
      "æĬ": 805,
      "å½": 806,
      "Ġboleh": 807,
      "17": 808,
      "ual": 809,
      "Ġ8": 810,
      "har": 811,
      "Ġsebagai": 812,
      "iri": 813,
      "99": 814,
      "ect": 815,
      "ja": 816,
      "perti": 817,
      "TA": 818,
      "æĭ": 819,
      "Ġia": 820,
      "Ġdapat": 821,
      "Ġlebih": 822,
      "ement": 823,
      "000": 824,
      "ingk": 825,
      "ial": 826,
      "ere": 827,
      "OL": 828,
      "arkan": 829,
      "man": 830,
      "èĩ": 831,
      "ĠThe": 832,
      "Ġpem": 833,
      "wa": 834,
      "ï¼ļ": 835,
      "Ġtahun": 836,
      "åº": 837,
      "åĨ": 838,
      "æĢ": 839,
      "UN": 840,
      "egara": 841,
      "Ġč": 842,
      "åĳ": 843,
      "TTTT": 844,
      "rom": 845,
      "Ġare": 846,
      "Ġdit": 847,
      "IT": 848,
      "Ġsec": 849,
      "anc": 850,
      "ĠTH": 851,
      "ear": 852,
      "26": 853,
      "Ġà®ª": 854,
      "Ġmel": 855,
      "Ġanda": 856,
      "yar": 857,
      "åĩº": 858,
      "ĠâĢĵ": 859,
      "Ġby": 860,
      "çĶŁ": 861,
      "Ġex": 862,
      "ump": 863,
      "ä¸º": 864,
      "å¤§": 865,
      "çī": 866,
      "Ġap": 867,
      "had": 868,
      "Per": 869,
      "RO": 870,
      "Ġtersebut": 871,
      "æĪĳ": 872,
      "Ġus": 873,
      "asan": 874,
      "SI": 875,
      "Ġsel": 876,
      "ĠčĊĠ": 877,
      "Ġpemb": 878,
      "lak": 879,
      "Ġà®ķ": 880,
      "Ġbers": 881,
      "ug": 882,
      "uran": 883,
      "ej": 884,
      "Ġà®®": 885,
      "çĽ": 886,
      "Ġtr": 887,
      "Ġaku": 888,
      "ika": 889,
      "50": 890,
      "ini": 891,
      "29": 892,
      "art": 893,
      "åİ": 894,
      "çľ": 895,
      "ENT": 896,
      "ID": 897,
      "ati": 898,
      "å¹´": 899,
      "aman": 900,
      "Ġlain": 901,
      "ima": 902,
      "UM": 903,
      "qu": 904,
      "à®ļ": 905,
      "Ġmend": 906,
      "éĩ": 907,
      "çĶ¨": 908,
      "AP": 909,
      "ĠRM": 910,
      "Ġ10": 911,
      "aru": 912,
      "ov": 913,
      "UL": 914,
      "çº": 915,
      "awa": 916,
      "40": 917,
      "Ġdaripada": 918,
      "ET": 919,
      "anyak": 920,
      "Ġ9": 921,
      "æĸ°": 922,
      "Ġag": 923,
      "Ġkem": 924,
      "27": 925,
      "28": 926,
      "Ġseperti": 927,
      "å¦": 928,
      "Ġ.": 929,
      "çİ": 930,
      "æĶ": 931,
      "aja": 932,
      "åī": 933,
      "ore": 934,
      "ine": 935,
      "----": 936,
      "éĿ": 937,
      "Ġi": 938,
      "Ġsatu": 939,
      "éĹ": 940,
      "ĠIs": 941,
      "air": 942,
      "âĢĵ": 943,
      "eny": 944,
      "è¿Ļ": 945,
      "udah": 946,
      "ungan": 947,
      "atkan": 948,
      "GCC": 949,
      "ç¤": 950,
      "Ø±": 951,
      "ob": 952,
      "Ġmenjadi": 953,
      "Ġyou": 954,
      "enc": 955,
      "Ġdik": 956,
      "¦ģ": 957,
      "ide": 958,
      "ĠBer": 959,
      "åĲį": 960,
      "Ġ&": 961,
      "æ²": 962,
      "li": 963,
      "ev": 964,
      "unya": 965,
      "ure": 966,
      "Ġhar": 967,
      "ä¸Ĭ": 968,
      "Ġkel": 969,
      "45": 970,
      "elaj": 971,
      "TAA": 972,
      "Ġses": 973,
      "Ġhas": 974,
      "ulan": 975,
      "æĿ¥": 976,
      "Ġà®ħ": 977,
      "ena": 978,
      "usan": 979,
      "apan": 980,
      "48": 981,
      "è¦ģ": 982,
      "à®ķà®³": 983,
      "ff": 984,
      "ĠUn": 985,
      "ĊĊĊĊ": 986,
      "æ¯": 987,
      "inya": 988,
      "da": 989,
      "Ġà®µ": 990,
      "Ġsh": 991,
      "Ġbel": 992,
      "sa": 993,
      "ihat": 994,
      "æ°": 995,
      "Ġà®¤": 996,
      "è´": 997,
      "isi": 998,
      "ust": 999,
      "ĠPeng": 1000,
      "Ġpas": 1001,
      "ans": 1002,
      "Ġfrom": 1003,
      "æŃ": 1004,
      "Ġac": 1005,
      "åĪ°": 1006,
      "uhan": 1007,
      "Ġman": 1008,
      "tor": 1009,
      "eti": 1010,
      "ĠIN": 1011,
      "ĠCh": 1012,
      "ont": 1013,
      "arang": 1014,
      "ä¼ļ": 1015,
      "à®¨": 1016,
      "Ġpend": 1017,
      "angkan": 1018,
      "æķ": 1019,
      "san": 1020,
      "Ġlagi": 1021,
      "ä»ĸ": 1022,
      "ĠPro": 1023,
      "33": 1024,
      "all": 1025,
      "yang": 1026,
      "UT": 1027,
      "au": 1028,
      "eh": 1029,
      "ail": 1030,
      "ä¹Ł": 1031,
      "unc": 1032,
      "OT": 1033,
      ",,,,,,,,,,,,,,,,": 1034,
      "åıĭ": 1035,
      "ingga": 1036,
      "In": 1037,
      "åıĳ": 1038,
      "åĴ": 1039,
      "ãĢģ": 1040,
      "ave": 1041,
      "Ġmenc": 1042,
      "à¨¾": 1043,
      "èĩª": 1044,
      "gunakan": 1045,
      "urut": 1046,
      "Ġthis": 1047,
      "Ġch": 1048,
      "mas": 1049,
      "EC": 1050,
      "ost": 1051,
      "ikut": 1052,
      "AB": 1053,
      "æ¬": 1054,
      "01": 1055,
      "Ġ,": 1056,
      "æĹ¶": 1057,
      "ĠInd": 1058,
      "å®¶": 1059,
      "à¯ĩ": 1060,
      "Ġsed": 1061,
      "03": 1062,
      "Ġberb": 1063,
      "Ġsecara": 1064,
      "ä¸ª": 1065,
      "ons": 1066,
      "AY": 1067,
      "Ġperk": 1068,
      "Ġnot": 1069,
      "ma": 1070,
      "age": 1071,
      "gan": 1072,
      "uti": 1073,
      "Ġres": 1074,
      "æľĢ": 1075,
      "IM": 1076,
      "Ġhari": 1077,
      "æ´": 1078,
      "Ġwill": 1079,
      "ilik": 1080,
      "ä»¥": 1081,
      "43": 1082,
      "ĠØ§": 1083,
      "æİ": 1084,
      "Ġsp": 1085,
      "Ġwas": 1086,
      "ç¾": 1087,
      "Ġà®ļ": 1088,
      "ens": 1089,
      "EK": 1090,
      "Ġ19": 1091,
      "ook": 1092,
      "à®£": 1093,
      "unan": 1094,
      "yat": 1095,
      "ef": 1096,
      "ÙĲ": 1097,
      "enar": 1098,
      "èĥ": 1099,
      "uah": 1100,
      ",,,,,,,,,,,,": 1101,
      "red": 1102,
      "à¯Ĩ": 1103,
      "ERS": 1104,
      "ight": 1105,
      "è¿ĩ": 1106,
      "è½": 1107,
      "AAC": 1108,
      "Ġpel": 1109,
      "ç§": 1110,
      "08": 1111,
      "ingg": 1112,
      "Ł¥": 1113,
      "Ġatas": 1114,
      "out": 1115,
      "åĽ½": 1116,
      "ä¸ĭ": 1117,
      "OM": 1118,
      "å°ı": 1119,
      "IR": 1120,
      "Ġant": 1121,
      "Øª": 1122,
      "åĪĨ": 1123,
      "æŀ": 1124,
      "2017": 1125,
      "so": 1126,
      "æ³": 1127,
      "ĠZ": 1128,
      "åķ": 1129,
      "ä¸Ń": 1130,
      "ĠTh": 1131,
      "tiv": 1132,
      "ATC": 1133,
      "ord": 1134,
      "EP": 1135,
      "ihan": 1136,
      "ĠAb": 1137,
      "esar": 1138,
      "02": 1139,
      ";;;": 1140,
      "empat": 1141,
      "iran": 1142,
      ";;;;;;;": 1143,
      ";;;;;;;;;;;;;;;": 1144,
      "ĠAs": 1145,
      "ç«": 1146,
      "to": 1147,
      "com": 1148,
      "Ġpert": 1149,
      "iz": 1150,
      "ĠĠĠ": 1151,
      "å¥½": 1152,
      "angat": 1153,
      "UD": 1154,
      "IK": 1155,
      "æĦ": 1156,
      "å°±": 1157,
      "Ġkerana": 1158,
      "TR": 1159,
      "tic": 1160,
      "ell": 1161,
      "arah": 1162,
      "06": 1163,
      "44": 1164,
      "ive": 1165,
      "ark": 1166,
      "TTC": 1167,
      "Ġbert": 1168,
      "The": 1169,
      "Ġun": 1170,
      "æł": 1171,
      "åħ¬": 1172,
      "tik": 1173,
      "ich": 1174,
      "tif": 1175,
      "ĠTer": 1176,
      "dan": 1177,
      "åĲİ": 1178,
      "æ¸": 1179,
      "AGC": 1180,
      "Ġ=": 1181,
      "07": 1182,
      "ence": 1183,
      "ated": 1184,
      "Ġanak": 1185,
      "åĴĮ": 1186,
      "agian": 1187,
      "ivers": 1188,
      "Ġkami": 1189,
      "2018": 1190,
      "Ġind": 1191,
      "Ġpeny": 1192,
      "form": 1193,
      "Ġapa": 1194,
      "ses": 1195,
      "09": 1196,
      "è¾": 1197,
      "é¡": 1198,
      "çĶ·": 1199,
      "Ġtent": 1200,
      "é©": 1201,
      "35": 1202,
      "pr": 1203,
      "36": 1204,
      "anah": 1205,
      "Ġ\"": 1206,
      "Ġni": 1207,
      "AAG": 1208,
      "umah": 1209,
      "her": 1210,
      "åı¯": 1211,
      "aga": 1212,
      "ï¼Ł": 1213,
      "âĢĵâĢĵ": 1214,
      "hir": 1215,
      "Un": 1216,
      "è¢": 1217,
      "2015": 1218,
      "76": 1219,
      "egeri": 1220,
      "Ġcan": 1221,
      "Ġnegara": 1222,
      "eks": 1223,
      "kin": 1224,
      "hid": 1225,
      "ond": 1226,
      "ĠSt": 1227,
      "ACC": 1228,
      "04": 1229,
      "Ġ/": 1230,
      "ank": 1231,
      "uka": 1232,
      "Ġmemp": 1233,
      "ional": 1234,
      "Ġkep": 1235,
      "Ġsemua": 1236,
      "ç¾İ": 1237,
      "ones": 1238,
      "Ġsu": 1239,
      "Ġtet": 1240,
      "ambil": 1241,
      "anan": 1242,
      "åĵ": 1243,
      "akat": 1244,
      "Ġab": 1245,
      "38": 1246,
      "éĻ": 1247,
      "pa": 1248,
      "å¥³åŃĲ": 1249,
      "Ġso": 1250,
      "78": 1251,
      "Ġmela": 1252,
      "eber": 1253,
      "umber": 1254,
      "elum": 1255,
      "Ġcomp": 1256,
      "2014": 1257,
      "Ġup": 1258,
      "Ġmasa": 1259,
      "Ġ15": 1260,
      "uatu": 1261,
      "gram": 1262,
      "NC": 1263,
      "AW": 1264,
      "ous": 1265,
      "IP": 1266,
      "Ġhave": 1267,
      "Ġkeb": 1268,
      "di": 1269,
      "Ġà®¨": 1270,
      "men": 1271,
      "ï¼ī": 1272,
      "ajaan": 1273,
      "av": 1274,
      "yah": 1275,
      "39": 1276,
      "Ùĩ": 1277,
      "å¥¹": 1278,
      "upakan": 1279,
      "tu": 1280,
      "edia": 1281,
      "ï¼Ī": 1282,
      "Ùĥ": 1283,
      "CL": 1284,
      "umlah": 1285,
      "2019": 1286,
      "Ġà®ĩ": 1287,
      "75": 1288,
      "å±": 1289,
      "ENG": 1290,
      "ĠOTHER": 1291,
      "Ġmin": 1292,
      "Ġtu": 1293,
      "Ġ18": 1294,
      "å¯¹": 1295,
      "Ġ...": 1296,
      "has": 1297,
      "TGC": 1298,
      "éģ": 1299,
      "ina": 1300,
      "lis": 1301,
      "ĠâĢĺ": 1302,
      "ult": 1303,
      ".,": 1304,
      "Ġsama": 1305,
      "ice": 1306,
      "ĠPM": 1307,
      "Ġcom": 1308,
      "Ġset": 1309,
      "à¯ĭ": 1310,
      "Ġkar": 1311,
      "è¢«": 1312,
      "Ġserta": 1313,
      "Ġked": 1314,
      "é©¬": 1315,
      "46": 1316,
      "aian": 1317,
      "AGG": 1318,
      "one": 1319,
      "ç¤¼": 1320,
      "Ġperlu": 1321,
      "hadap": 1322,
      "ÙĴ": 1323,
      "å¤ļ": 1324,
      "ATG": 1325,
      "se": 1326,
      "oul": 1327,
      "ng": 1328,
      "å¿ĥ": 1329,
      "Ġbaik": 1330,
      "Ġpun": 1331,
      "Ġbin": 1332,
      "ĠĊ": 1333,
      "usi": 1334,
      "res": 1335,
      "olo": 1336,
      "ilai": 1337,
      "Ġdip": 1338,
      "mana": 1339,
      "Ġbanyak": 1340,
      "aikan": 1341,
      "æīĭ": 1342,
      "ener": 1343,
      "Ġhad": 1344,
      "na": 1345,
      "meng": 1346,
      "çĪ": 1347,
      "ä»¬": 1348,
      "mat": 1349,
      "Ġterb": 1350,
      "Ġmemberi": 1351,
      "Ġnak": 1352,
      "TS": 1353,
      "Ġall": 1354,
      "az": 1355,
      "Cand": 1356,
      "åİ»": 1357,
      "Ġme": 1358,
      "imb": 1359,
      "ical": 1360,
      "Ġpers": 1361,
      "ach": 1362,
      "aid": 1363,
      "elas": 1364,
      "å¼ķ": 1365,
      "PP": 1366,
      "æĹ¥": 1367,
      "2016": 1368,
      "å©": 1369,
      "alau": 1370,
      "ame": 1371,
      "Ġketi": 1372,
      "ue": 1373,
      "Ġaw": 1374,
      "æĪĲ": 1375,
      "OS": 1376,
      "Ġantara": 1377,
      "ould": 1378,
      "olah": 1379,
      "Ġwe": 1380,
      "unyai": 1381,
      "49": 1382,
      "unj": 1383,
      "aha": 1384,
      "lic": 1385,
      "ahu": 1386,
      "TTG": 1387,
      "æĽ": 1388,
      "ĠFOR": 1389,
      "ota": 1390,
      "ember": 1391,
      "çľĭ": 1392,
      "éĿ¢": 1393,
      "Ġberkata": 1394,
      "________________": 1395,
      "ĠĠĠĠ": 1396,
      "è¡¨": 1397,
      "Ġhe": 1398,
      "itan": 1399,
      "æ²¡": 1400,
      "Ġhanya": 1401,
      "ihak": 1402,
      "utan": 1403,
      "Ġpol": 1404,
      "ks": 1405,
      "ĠAllah": 1406,
      "tern": 1407,
      "é¢": 1408,
      "era": 1409,
      "é£": 1410,
      "Ùı": 1411,
      "Ġ16": 1412,
      "min": 1413,
      "idikan": 1414,
      "As": 1415,
      "ĠIslam": 1416,
      "ahkan": 1417,
      "à®Ļ": 1418,
      "ii": 1419,
      "//": 1420,
      "ologi": 1421,
      "inggi": 1422,
      "éĥ½": 1423,
      "onesia": 1424,
      "åĿ": 1425,
      "88": 1426,
      "Ġmerupakan": 1427,
      "Ġdiper": 1428,
      "duc": 1429,
      "ikat": 1430,
      "å¾Ĺ": 1431,
      "LE": 1432,
      "çŁ¥": 1433,
      "æ¡": 1434,
      "ustr": 1435,
      "umb": 1436,
      "Ġmana": 1437,
      "PH": 1438,
      "Ġam": 1439,
      "Ħè®": 1440,
      "ies": 1441,
      "las": 1442,
      "ther": 1443,
      "è¶": 1444,
      "Ġ12": 1445,
      "awah": 1446,
      "onom": 1447,
      "ä¿": 1448,
      "Ġseh": 1449,
      "entuk": 1450,
      "èº": 1451,
      "Ġseorang": 1452,
      "èĥ½": 1453,
      "ekn": 1454,
      "eberapa": 1455,
      "Ġtentang": 1456,
      "Ø¯": 1457,
      "tp": 1458,
      "ä½ł": 1459,
      "mer": 1460,
      "Ġstr": 1461,
      "æ´»": 1462,
      "inan": 1463,
      "Ġbukan": 1464,
      "Ġsangat": 1465,
      "usia": 1466,
      "RM": 1467,
      "å¼Ģ": 1468,
      "AJ": 1469,
      "Ġti": 1470,
      "èĤ": 1471,
      "ERI": 1472,
      "ingan": 1473,
      "æĮ": 1474,
      "ward": 1475,
      "VER": 1476,
      "à¨°": 1477,
      "ww": 1478,
      "TAC": 1479,
      "pro": 1480,
      "Ø¨": 1481,
      "ĠNOT": 1482,
      "ensi": 1483,
      "AAAA": 1484,
      "eker": 1485,
      "ood": 1486,
      "ĠAM": 1487,
      "ase": 1488,
      "lum": 1489,
      "iau": 1490,
      "lui": 1491,
      "ex": 1492,
      "ĠKer": 1493,
      "37": 1494,
      "hat": 1495,
      "asar": 1496,
      "Ġdua": 1497,
      "47": 1498,
      "Ġpar": 1499,
      "EG": 1500,
      "èº«": 1501,
      "Ġmempunyai": 1502,
      "åģ": 1503,
      "ni": 1504,
      "TGG": 1505,
      "able": 1506,
      "æµ": 1507,
      "AND": 1508,
      "äºİ": 1509,
      "ĠPR": 1510,
      "åĮ¿": 1511,
      "Ø³": 1512,
      "åĮ¿åĲį": 1513,
      "ner": 1514,
      "://": 1515,
      "epas": 1516,
      "apkan": 1517,
      "è¿ĺ": 1518,
      "Ġkec": 1519,
      "ilan": 1520,
      "ebab": 1521,
      "upun": 1522,
      "Ġrumah": 1523,
      "Ġsah": 1524,
      "dapat": 1525,
      "Ġnew": 1526,
      "matan": 1527,
      "ount": 1528,
      "tikan": 1529,
      "Ġcont": 1530,
      "Ġsudah": 1531,
      "atakan": 1532,
      "uru": 1533,
      "Ġmod": 1534,
      "abila": 1535,
      "55": 1536,
      "port": 1537,
      "endiri": 1538,
      "éĺ": 1539,
      "Ġterhadap": 1540,
      "ĠPen": 1541,
      "ukkan": 1542,
      "IA": 1543,
      "Ġwor": 1544,
      "ents": 1545,
      "ĠPER": 1546,
      ",âĢĿ": 1547,
      "ĠSh": 1548,
      "è¯´": 1549,
      "æĤ": 1550,
      "ATI": 1551,
      "ulis": 1552,
      "Ġbahawa": 1553,
      "à©Ģ": 1554,
      "æĥĬ": 1555,
      "of": 1556,
      "Ġberd": 1557,
      "Ġsup": 1558,
      "Ġyour": 1559,
      "ra": 1560,
      "UAL": 1561,
      "Ġdo": 1562,
      "äº²": 1563,
      "ome": 1564,
      "ts": 1565,
      "Ġwhich": 1566,
      "à¯Ĭ": 1567,
      "Ġalso": 1568,
      "uang": 1569,
      "aks": 1570,
      "ign": 1571,
      "Ġair": 1572,
      "por": 1573,
      "ungkin": 1574,
      "åľ°": 1575,
      "ime": 1576,
      "UB": 1577,
      "Ġtheir": 1578,
      "Ġà®İ": 1579,
      "ĠAr": 1580,
      "ç¬": 1581,
      "çł": 1582,
      "ations": 1583,
      "âĢĶ": 1584,
      "cl": 1585,
      "èģ": 1586,
      "istem": 1587,
      "Ġ[": 1588,
      "ile": 1589,
      "Ġseti": 1590,
      "EB": 1591,
      "elajar": 1592,
      "çĿ": 1593,
      "ack": 1594,
      "Ġkata": 1595,
      "unia": 1596,
      "å½ĵ": 1597,
      "æĸ¹": 1598,
      "Ġmendapat": 1599,
      "éĤ": 1600,
      "antu": 1601,
      "arik": 1602,
      "Ġ11": 1603,
      "Ġout": 1604,
      "çĭ": 1605,
      "ij": 1606,
      "Ġsebelum": 1607,
      "Ġdah": 1608,
      "ä½³": 1609,
      "çĲ": 1610,
      "à¨¿": 1611,
      "çĤ": 1612,
      "AAN": 1613,
      "aling": 1614,
      "me": 1615,
      "31": 1616,
      "66": 1617,
      "ite": 1618,
      "åħ¨": 1619,
      "TCC": 1620,
      "asih": 1621,
      "Ġberj": 1622,
      "æĸĩ": 1623,
      "Ġmore": 1624,
      "å¤©": 1625,
      "GCG": 1626,
      "ĠIndonesia": 1627,
      "çĻ": 1628,
      "Ġsej": 1629,
      "AI": 1630,
      "angs": 1631,
      "å¼ķçĶ¨": 1632,
      "ä¾": 1633,
      "ĠTHE": 1634,
      "pen": 1635,
      "ary": 1636,
      "ĠSaya": 1637,
      "OH": 1638,
      "æĹł": 1639,
      "ry": 1640,
      "Ġund": 1641,
      "Ġmelak": 1642,
      "ani": 1643,
      "ĠYang": 1644,
      "EMENT": 1645,
      "alkan": 1646,
      "ä¸ĩ": 1647,
      "à®ªà®Ł": 1648,
      "Ġmener": 1649,
      "è°": 1650,
      "à©ĩ": 1651,
      "ingkat": 1652,
      "éĥ¨": 1653,
      "Ġen": 1654,
      "Ġmasih": 1655,
      "éļ": 1656,
      "Ġel": 1657,
      "mad": 1658,
      "æ¡Ī": 1659,
      "34": 1660,
      "Ġ14": 1661,
      "é¦": 1662,
      "Ġimp": 1663,
      "Ġsi": 1664,
      "ahun": 1665,
      "è¡Į": 1666,
      "Ġbeberapa": 1667,
      "ech": 1668,
      "HE": 1669,
      "59": 1670,
      "Ġdilak": 1671,
      "79": 1672,
      "Ġbaru": 1673,
      "58": 1674,
      "ition": 1675,
      "Ġbawah": 1676,
      "Ġkeluar": 1677,
      "Ġits": 1678,
      "akah": 1679,
      "ikasi": 1680,
      "ĠAD": 1681,
      "Ġbet": 1682,
      "lo": 1683,
      "Ġpihak": 1684,
      "äºĭ": 1685,
      "à¯į.": 1686,
      "56": 1687,
      "urang": 1688,
      "Ġdir": 1689,
      "nah": 1690,
      "ast": 1691,
      "ĠDat": 1692,
      "Ġbut": 1693,
      "æľ¬": 1694,
      "Ġsetiap": 1695,
      "éľ": 1696,
      "erah": 1697,
      "ee": 1698,
      "aris": 1699,
      "åīį": 1700,
      "alis": 1701,
      "wak": 1702,
      "Ġtetapi": 1703,
      "Ġjika": 1704,
      "tuk": 1705,
      "Ġsamp": 1706,
      "my": 1707,
      "ĠPemb": 1708,
      "amun": 1709,
      "Ġmenggunakan": 1710,
      "vers": 1711,
      "ulu": 1712,
      "yarakat": 1713,
      "lim": 1714,
      "Ċč": 1715,
      "Ġ17": 1716,
      "32": 1717,
      "ega": 1718,
      "ATTT": 1719,
      "over": 1720,
      "à®´": 1721,
      "èī": 1722,
      "ungg": 1723,
      "ä¸İ": 1724,
      "uku": 1725,
      "çİ°": 1726,
      "ĠBIN": 1727,
      "ll": 1728,
      "Ġmembuat": 1729,
      "Ġ'": 1730,
      "ĠPr": 1731,
      "Ġbesar": 1732,
      "ĠDi": 1733,
      "enti": 1734,
      "ä½³ç¤¼": 1735,
      "anak": 1736,
      "ge": 1737,
      "à¯Ĥ": 1738,
      "èĢĮ": 1739,
      "aca": 1740,
      "Ġkaw": 1741,
      "ĠX": 1742,
      "Ġcar": 1743,
      "aat": 1744,
      "æĥ³": 1745,
      "è·": 1746,
      "mp": 1747,
      "Ġsendiri": 1748,
      "Ġpula": 1749,
      "åĬ¨": 1750,
      "amu": 1751,
      "ONS": 1752,
      "low": 1753,
      "elang": 1754,
      "Ġbahwa": 1755,
      "act": 1756,
      "awatan": 1757,
      "jek": 1758,
      "Ġhal": 1759,
      "TAG": 1760,
      ".\",": 1761,
      "acam": 1762,
      "Ġdij": 1763,
      "mu": 1764,
      "åĢ": 1765,
      "awab": 1766,
      "Ġmelalui": 1767,
      "2021": 1768,
      "OD": 1769,
      "çĥ": 1770,
      "ĠAd": 1771,
      "ike": 1772,
      "ira": 1773,
      "Ġdiri": 1774,
      "æľº": 1775,
      ",,,,,,,,,,,,,,,,,,,,,,,,,,,,,,,,": 1776,
      "æ¸¸": 1777,
      "Ġrec": 1778,
      "atang": 1779,
      "EMB": 1780,
      "äº¤": 1781,
      "wai": 1782,
      "its": 1783,
      "idup": 1784,
      "edah": 1785,
      "ĠTr": 1786,
      "Ġketika": 1787,
      "ational": 1788,
      "Ġsehingga": 1789,
      "angunan": 1790,
      "itas": 1791,
      "istr": 1792,
      "çīĩ": 1793,
      "åĦ": 1794,
      "angsa": 1795,
      "Ġbi": 1796,
      "Ġmengen": 1797,
      "Ġâ": 1798,
      "NN": 1799,
      "Ùģ": 1800,
      "åľº": 1801,
      "ongan": 1802,
      "ree": 1803,
      "the": 1804,
      "Ġ25": 1805,
      "ç¥": 1806,
      "lay": 1807,
      "å¾Ī": 1808,
      "Ġmemper": 1809,
      "amai": 1810,
      "uruh": 1811,
      "Ġdil": 1812,
      "çķ": 1813,
      "ely": 1814,
      "å¿«": 1815,
      "ĠCO": 1816,
      "itik": 1817,
      "old": 1818,
      "Ġoff": 1819,
      "åĦ¿": 1820,
      "ĠKu": 1821,
      "Ġbuat": 1822,
      "Ġsub": 1823,
      "Ġberp": 1824,
      "æį": 1825,
      "CH": 1826,
      "ç»ı": 1827,
      "ĠQ": 1828,
      "ĠØ§ÙĦ": 1829,
      "akit": 1830,
      "enis": 1831,
      "UK": 1832,
      "éĴ": 1833,
      "akar": 1834,
      "Ġmaka": 1835,
      "An": 1836,
      "ibu": 1837,
      "eter": 1838,
      "69": 1839,
      "Ġdid": 1840,
      "egawai": 1841,
      "uskan": 1842,
      "udian": 1843,
      "edi": 1844,
      "Ġmakan": 1845,
      "TIS": 1846,
      "TAAT": 1847,
      "Ġ+": 1848,
      "aka": 1849,
      "ĠPend": 1850,
      "ose": 1851,
      "çĶ·åıĭ": 1852,
      "57": 1853,
      "tem": 1854,
      "å©ļ": 1855,
      "Ġmasalah": 1856,
      "å·±": 1857,
      "iversiti": 1858,
      "èĢħ": 1859,
      "ĠNo": 1860,
      "çĦ": 1861,
      "Ġiaitu": 1862,
      "æĢ§": 1863,
      "Ġdr": 1864,
      "anding": 1865,
      "ger": 1866,
      "çŃ": 1867,
      "asarkan": 1868,
      "akyat": 1869,
      "100": 1870,
      "89": 1871,
      "Ġdem": 1872,
      "æ±": 1873,
      "ateg": 1874,
      "èĩªå·±": 1875,
      "http": 1876,
      "æŀľ": 1877,
      "Ġrasa": 1878,
      "engk": 1879,
      "AAAT": 1880,
      "eed": 1881,
      "Ġpl": 1882,
      "Ġte": 1883,
      "Ġperm": 1884,
      "åĽł": 1885,
      "å¨": 1886,
      "ambar": 1887,
      "Ġsebuah": 1888,
      "éĩĮ": 1889,
      "æĬĬ": 1890,
      "æĶ¶": 1891,
      "anita": 1892,
      "éħ": 1893,
      "æĻ": 1894,
      "Ġany": 1895,
      "41": 1896,
      "Ġrel": 1897,
      "ĠCH": 1898,
      "ĠBah": 1899,
      "ĠDr": 1900,
      "Ġberla": 1901,
      "enteri": 1902,
      "2020": 1903,
      "Al": 1904,
      "atif": 1905,
      "Ġtan": 1906,
      "Ġberikut": 1907,
      "PM": 1908,
      "ä½ľ": 1909,
      "Ġsep": 1910,
      "inc": 1911,
      "Ġrep": 1912,
      "evel": 1913,
      "Ġyear": 1914,
      "Ġbersama": 1915,
      "Ġapabila": 1916,
      "angka": 1917,
      "we": 1918,
      "ital": 1919,
      "Ġcer": 1920,
      "ãĢĤãĢĤ": 1921,
      "isa": 1922,
      "DN": 1923,
      "æģ": 1924,
      "æľĪ": 1925,
      "PR": 1926,
      "Ġ|": 1927,
      "ĠĊĠ": 1928,
      "ld": 1929,
      "Ġmat": 1930,
      "à®µà®°": 1931,
      "ities": 1932,
      "igh": 1933,
      "endak": 1934,
      "ĠPRO": 1935,
      "Ùĳ": 1936,
      "éķ": 1937,
      "Ġtert": 1938,
      "dul": 1939,
      "elajaran": 1940,
      "ĠAp": 1941,
      "ĠPem": 1942,
      "olog": 1943,
      "engah": 1944,
      "Ġ30": 1945,
      "Ġtemp": 1946,
      "cess": 1947,
      "æ°ĳ": 1948,
      "masuk": 1949,
      "ïĤ": 1950,
      "Ġkerja": 1951,
      "ert": 1952,
      "Ġ13": 1953,
      "ĠTHAN": 1954,
      "æı": 1955,
      "à¯Ģ": 1956,
      "UAN": 1957,
      "çĿĢ": 1958,
      "tar": 1959,
      "ä¸»": 1960,
      "hor": 1961,
      "ĠDan": 1962,
      "ï¿½ï¿½ï¿½": 1963,
      "60": 1964,
      "ish": 1965,
      "adan": 1966,
      "èĢģ": 1967,
      "Ġket": 1968,
      "duk": 1969,
      "alik": 1970,
      "Â·": 1971,
      "ese": 1972,
      "enting": 1973,
      "lain": 1974,
      "Ġtahu": 1975,
      "ESS": 1976,
      "çħ": 1977,
      "sp": 1978,
      "77": 1979,
      "éĽ": 1980,
      "Ġya": 1981,
      "Ġut": 1982,
      "Ġing": 1983,
      "tions": 1984,
      "Ġperb": 1985,
      "68": 1986,
      "Ø¹": 1987,
      "Ġdiberi": 1988,
      "ohon": 1989,
      "ï¿½ï¿½ï¿½ï¿½ï¿½ï¿½ï¿½ï¿½": 1990,
      "ning": 1991,
      "è§ī": 1992,
      "omb": 1993,
      "çĦ¶": 1994,
      "å¦Ĥ": 1995,
      "iew": 1996,
      "Ġsur": 1997,
      "Ġ2020": 1998,
      "ĠÙħ": 1999,
      "åķª": 2000,
      "Ġharus": 2001,
      "eluar": 2002,
      "can": 2003,
      "urusan": 2004,
      "ukum": 2005,
      "abat": 2006,
      "åĽŀ": 2007,
      "iliki": 2008,
      "Ġsaid": 2009,
      "OTHER": 2010,
      "Ġkal": 2011,
      "--------": 2012,
      "æĬ¥": 2013,
      "ne": 2014,
      "PER": 2015,
      "empuan": 2016,
      "åŃ¦": 2017,
      "Ġz": 2018,
      "æĥħ": 2019,
      "ĠMen": 2020,
      "ĠMela": 2021,
      "ÙĤ": 2022,
      "Ġdes": 2023,
      "Ġno": 2024,
      "atanya": 2025,
      "Ġprogram": 2026,
      "Ġkarena": 2027,
      "èĦ": 2028,
      "ç²": 2029,
      "ebabkan": 2030,
      "Ġbeliau": 2031,
      "Ġmelakukan": 2032,
      "Ġtempat": 2033,
      "dengan": 2034,
      "Ġselepas": 2035,
      "æİ¥": 2036,
      "Ġev": 2037,
      "te": 2038,
      "TER": 2039,
      "æ³ķ": 2040,
      "Ġseg": 2041,
      "Ġberm": 2042,
      "ance": 2043,
      "abah": 2044,
      ".âĢĿ": 2045,
      "own": 2046,
      "Ġpos": 2047,
      "ble": 2048,
      "ori": 2049,
      "unjukkan": 2050,
      "42": 2051,
      "ĠAk": 2052,
      "å¤«": 2053,
      "Ġlalu": 2054,
      "tim": 2055,
      "uas": 2056,
      "arga": 2057,
      "tain": 2058,
      "uta": 2059,
      "anda": 2060,
      ".\"": 2061,
      "yak": 2062,
      "elangor": 2063,
      "*,": 2064,
      "ĠNegeri": 2065,
      "å½ķ": 2066,
      "anjang": 2067,
      "verse": 2068,
      "èĭ": 2069,
      "way": 2070,
      "CLUD": 2071,
      "Ġone": 2072,
      "Ġmengh": 2073,
      "ĠIb": 2074,
      "eknologi": 2075,
      "ä¹ĭ": 2076,
      "Ġkerajaan": 2077,
      "onomi": 2078,
      "Ġstud": 2079,
      "UALA": 2080,
      "Ġbulan": 2081,
      "Ġsebab": 2082,
      "jadi": 2083,
      "æīĢ": 2084,
      "Ġapp": 2085,
      "ept": 2086,
      "ebook": 2087,
      "å¤±": 2088,
      "bagai": 2089,
      "ajian": 2090,
      "Ġwak": 2091,
      "Ġà®ī": 2092,
      "aus": 2093,
      "ĠMas": 2094,
      "ound": 2095,
      "Ġthey": 2096,
      "Ø§ÙĦ": 2097,
      "ataan": 2098,
      "VERTIS": 2099,
      "ĠNegara": 2100,
      "Ġtinggi": 2101,
      "Ġ21": 2102,
      "ĠKes": 2103,
      "Ġ2019": 2104,
      "ory": 2105,
      "ä½Ĩ": 2106,
      "lumat": 2107,
      "Ġum": 2108,
      "æľŁ": 2109,
      "Ġwho": 2110,
      "GGG": 2111,
      "les": 2112,
      "ĠSem": 2113,
      "Ġfir": 2114,
      "yarikat": 2115,
      "adaan": 2116,
      "VERTISEMENT": 2117,
      "forward": 2118,
      "IND": 2119,
      "atur": 2120,
      "IG": 2121,
      "Ġterk": 2122,
      "çĽ¸": 2123,
      "ĠMoh": 2124,
      "UC": 2125,
      "ïĢ": 2126,
      "ĠPers": 2127,
      "ĠDAN": 2128,
      "90": 2129,
      "ĠUS": 2130,
      "lalu": 2131,
      "ujuan": 2132,
      "LO": 2133,
      "idate": 2134,
      "Ġek": 2135,
      "andar": 2136,
      "å¤ĸ": 2137,
      "èµ·": 2138,
      "ering": 2139,
      "ĠAh": 2140,
      "ACG": 2141,
      "âĢĵâĢĵâĢĵâĢĵ": 2142,
      "æīĵ": 2143,
      "Ġother": 2144,
      "ade": 2145,
      "ĠDalam": 2146,
      "ekerja": 2147,
      "Th": 2148,
      "åĲī": 2149,
      "Ġialah": 2150,
      "acebook": 2151,
      "osial": 2152,
      "abatan": 2153,
      "Ġsahaja": 2154,
      "Ġexp": 2155,
      "ĠADVERTISEMENT": 2156,
      "Ġkali": 2157,
      "Ġcara": 2158,
      "rit": 2159,
      "åī§": 2160,
      "Ġdilakukan": 2161,
      "ATED": 2162,
      "Ġkom": 2163,
      "éģĵ": 2164,
      "å§": 2165,
      "uduk": 2166,
      "Ġdata": 2167,
      "EW": 2168,
      "Ġselam": 2169,
      "ash": 2170,
      "Ġjadi": 2171,
      "Ġdunia": 2172,
      "éĢļ": 2173,
      "str": 2174,
      "Ġinter": 2175,
      "åĲĮ": 2176,
      "åıª": 2177,
      "Ġmasyarakat": 2178,
      "çĽ´": 2179,
      "Ø©": 2180,
      "ors": 2181,
      "Ġberlaku": 2182,
      "peng": 2183,
      "ä¸ī": 2184,
      "ideo": 2185,
      "ĠSek": 2186,
      "Ġturut": 2187,
      "itar": 2188,
      "å¾Ģ": 2189,
      "éª": 2190,
      "Ġsc": 2191,
      "IB": 2192,
      "87": 2193,
      "èĬ": 2194,
      "Ġpara": 2195,
      "SM": 2196,
      "Ġtime": 2197,
      "hidmatan": 2198,
      "NO": 2199,
      "Ġsalah": 2200,
      "ular": 2201,
      "åħ¶": 2202,
      "dalam": 2203,
      "PHT": 2204,
      "é«": 2205,
      "ke": 2206,
      "su": 2207,
      "asional": 2208,
      "Ġku": 2209,
      "ower": 2210,
      "ĠÙİ": 2211,
      "Ġmes": 2212,
      "SIPHT": 2213,
      "è¯Ħè®": 2214,
      "çĤ¹": 2215,
      "ïģ": 2216,
      "è¯Ħè®º": 2217,
      "atus": 2218,
      "çħ§": 2219,
      "Ġdep": 2220,
      "wan": 2221,
      "raf": 2222,
      "Ġmark": 2223,
      "Ġhidup": 2224,
      "67": 2225,
      "éĹ´": 2226,
      "è¯¥": 2227,
      "Ġkedua": 2228,
      "65": 2229,
      "æĽ´": 2230,
      "Ġ@": 2231,
      "IAN": 2232,
      "Ġhingga": 2233,
      "ĠMer": 2234,
      "Candidate": 2235,
      "çĶŁæ´»": 2236,
      "ings": 2237,
      "ĠMenteri": 2238,
      "Ġmungkin": 2239,
      "å¤´": 2240,
      "ĠAS": 2241,
      "å¯Ĩ": 2242,
      "Ġkek": 2243,
      "Ġdigunakan": 2244,
      "tur": 2245,
      "Ġkasih": 2246,
      "Ġpertama": 2247,
      "Ġtermasuk": 2248,
      "85": 2249,
      "æ»": 2250,
      "à¨Ĥ": 2251,
      "TCG": 2252,
      "Ġterus": 2253,
      "åıĮ": 2254,
      "Ġsuatu": 2255,
      "oy": 2256,
      "Ġpernah": 2257,
      "Ġshar": 2258,
      "ATAT": 2259,
      "Ġx": 2260,
      "Ġ29": 2261,
      "çĸ": 2262,
      "Ġsistem": 2263,
      "åħ³": 2264,
      "ĠAR": 2265,
      "åĬł": 2266,
      "è½¦": 2267,
      "sanakan": 2268,
      "aji": 2269,
      "iness": 2270,
      "ubungan": 2271,
      "agram": 2272,
      "ĠMan": 2273,
      "ink": 2274,
      "enang": 2275,
      "enda": 2276,
      "æº": 2277,
      "mail": 2278,
      "Ġ2018": 2279,
      "Ter": 2280,
      "sh": 2281,
      "CI": 2282,
      "Ġmacam": 2283,
      "pas": 2284,
      "à¨¤": 2285,
      "CE": 2286,
      "Ġka": 2287,
      "Ġacc": 2288,
      "yu": 2289,
      "à¨¨": 2290,
      "Ġbeen": 2291,
      "èĪ": 2292,
      "Ġperkara": 2293,
      "ĠInst": 2294,
      "ç®": 2295,
      "are": 2296,
      "Ġmengenai": 2297,
      "Ġwere": 2298,
      "Ġpes": 2299,
      "ĠAc": 2300,
      "'s": 2301,
      "ãĢĭ": 2302,
      "ĠKe": 2303,
      "enaan": 2304,
      "ĠMeng": 2305,
      "wit": 2306,
      "é«ĺ": 2307,
      "ĠAg": 2308,
      "Ġbahasa": 2309,
      "reat": 2310,
      "anti": 2311,
      "Ġpe": 2312,
      "Ġob": 2313,
      "ystem": 2314,
      "mem": 2315,
      "è®©": 2316,
      "Ġà®İà®©": 2317,
      "aksi": 2318,
      "ç©": 2319,
      "ĠCON": 2320,
      "ç´": 2321,
      "çĶµ": 2322,
      "Ġmanusia": 2323,
      "æĲ": 2324,
      "evelop": 2325,
      "Pro": 2326,
      "erian": 2327,
      "Ġnilai": 2328,
      "åŁ": 2329,
      "ÂŃ": 2330,
      "Ġproses": 2331,
      "80": 2332,
      "åı¸": 2333,
      "mi": 2334,
      "ä¹Ī": 2335,
      "epat": 2336,
      "clud": 2337,
      "engar": 2338,
      "RN": 2339,
      "ĠDis": 2340,
      "dr": 2341,
      "ãĢĬ": 2342,
      "ç»ĵ": 2343,
      "urn": 2344,
      "æĭ¿": 2345,
      "laki": 2346,
      "ĠIni": 2347,
      "fer": 2348,
      "uhi": 2349,
      "åħī": 2350,
      "embali": 2351,
      "ally": 2352,
      "ihatan": 2353,
      "ull": 2354,
      "Ġharga": 2355,
      "åĸ": 2356,
      "å¢": 2357,
      "aku": 2358,
      "à¯į,": 2359,
      "éķ¿": 2360,
      "Ġif": 2361,
      "Ġtrans": 2362,
      "è±": 2363,
      "aerah": 2364,
      "II": 2365,
      "è¨": 2366,
      "uai": 2367,
      "erv": 2368,
      "èī²": 2369,
      "Ġhasil": 2370,
      "çĲĨ": 2371,
      "Ġberh": 2372,
      "ĠJadi": 2373,
      "ender": 2374,
      "52": 2375,
      "eta": 2376,
      "åı¯ä»¥": 2377,
      "ock": 2378,
      "Ġsus": 2379,
      "ambah": 2380,
      "ALAN": 2381,
      "åħ¥": 2382,
      "ollow": 2383,
      "Ġdim": 2384,
      "å°Ĩ": 2385,
      "ä½ĵ": 2386,
      "Ġour": 2387,
      "é¦ĸ": 2388,
      "å²": 2389,
      "canner": 2390,
      "ARA": 2391,
      "CLUDING": 2392,
      "ONG": 2393,
      "tive": 2394,
      "Ġthere": 2395,
      "ĠOr": 2396,
      "Ġresp": 2397,
      "Ġpenggun": 2398,
      "è¶ħ": 2399,
      "Ġ2021": 2400,
      "ĠIt": 2401,
      "åĳĺ": 2402,
      "ĠÂ": 2403,
      "ters": 2404,
      "Ġ199": 2405,
      "çĥŃ": 2406,
      "Ġkalau": 2407,
      "å½±": 2408,
      "let": 2409,
      "Ġint": 2410,
      "70": 2411,
      "usiness": 2412,
      "ĠDatuk": 2413,
      "ohor": 2414,
      "teri": 2415,
      "Ġ100": 2416,
      "Ġ00": 2417,
      "ugh": 2418,
      "uda": 2419,
      "Ġà®Ĩ": 2420,
      "AMP": 2421,
      "arawak": 2422,
      "tiviti": 2423,
      "ayaan": 2424,
      "eal": 2425,
      "å¥³åĦ¿": 2426,
      "kaitan": 2427,
      "idang": 2428,
      "ola": 2429,
      "Ġtanpa": 2430,
      "ĠSeb": 2431,
      "ibat": 2432,
      "ased": 2433,
      "ie": 2434,
      "ience": 2435,
      "à¨¸": 2436,
      "ilihan": 2437,
      "sRN": 2438,
      "Ascanner": 2439,
      "sRNAscanner": 2440,
      "éĤ£": 2441,
      "etua": 2442,
      "Ġluar": 2443,
      "ise": 2444,
      "éĿŀ": 2445,
      "Ġbr": 2446,
      "Ġkej": 2447,
      "ject": 2448,
      "usat": 2449,
      "intah": 2450,
      "åıĪ": 2451,
      "Ġtanah": 2452,
      "åĪ«": 2453,
      "yen": 2454,
      "ĠAm": 2455,
      "ilih": 2456,
      "Ġsk": 2457,
      "CCC": 2458,
      "alu": 2459,
      "abi": 2460,
      "ater": 2461,
      "Ġmemberikan": 2462,
      "Peng": 2463,
      "Ġterdapat": 2464,
      "2022": 2465,
      "ange": 2466,
      "æ¼": 2467,
      "ITH": 2468,
      "ru": 2469,
      "åĽ¾": 2470,
      "54": 2471,
      "Ġinform": 2472,
      "Ġpand": 2473,
      "antan": 2474,
      "Ġmelihat": 2475,
      "Ġrakyat": 2476,
      "din": 2477,
      "ĠPeny": 2478,
      "ery": 2479,
      "ä¹Ĳ": 2480,
      "ĠST": 2481,
      "ility": 2482,
      "dak": 2483,
      "yp": 2484,
      "ðĿ": 2485,
      "cr": 2486,
      "Ġhis": 2487,
      "ä¹¦": 2488,
      "Ġinv": 2489,
      "çĪ±": 2490,
      "æĳ": 2491,
      "ATAN": 2492,
      "Ber": 2493,
      "iden": 2494,
      "no": 2495,
      "Ġpenj": 2496,
      "Ġpaling": 2497,
      "Ġpenting": 2498,
      "éĴ±": 2499,
      "çĹ": 2500,
      "ĠTahun": 2501,
      "UMP": 2502,
      "ices": 2503,
      "Ġtapi": 2504,
      "ĠTanah": 2505,
      "Ġpart": 2506,
      "Ġmengambil": 2507,
      "ĠMAT": 2508,
      "bah": 2509,
      "ungsi": 2510,
      "Ġberada": 2511,
      "Ġbentuk": 2512,
      "Ġbeg": 2513,
      "Ġmemas": 2514,
      "IF": 2515,
      "adar": 2516,
      "Ġ2017": 2517,
      "æĦı": 2518,
      "angkah": 2519,
      "Ġkh": 2520,
      "INE": 2521,
      "ivid": 2522,
      "seb": 2523,
      "Ġkatanya": 2524,
      "BK": 2525,
      "ĠAbdul": 2526,
      "TIC": 2527,
      "æŃ¤": 2528,
      "ĠKuala": 2529,
      "agaan": 2530,
      "ä¹°": 2531,
      "ode": 2532,
      "AU": 2533,
      "åıĬ": 2534,
      "Ġem": 2535,
      "ace": 2536,
      "Ġfe": 2537,
      "Ġkn": 2538,
      "empatan": 2539,
      "reverse": 2540,
      "HETHER": 2541,
      "Ġmus": 2542,
      "Ġtiga": 2543,
      "umpur": 2544,
      "Ġjumlah": 2545,
      "Ġqu": 2546,
      "å·²": 2547,
      "ĠFor": 2548,
      "Ġramai": 2549,
      "uman": 2550,
      "RE": 2551,
      "åĨħ": 2552,
      "Ġget": 2553,
      "Ġreg": 2554,
      "TAN": 2555,
      "perasi": 2556,
      "Ġmata": 2557,
      "Ġsesuatu": 2558,
      "ĠSP": 2559,
      "ajah": 2560,
      "Ġmula": 2561,
      "erit": 2562,
      "86": 2563,
      "ä¸Ģä¸ª": 2564,
      "echn": 2565,
      "Ġmenunjukkan": 2566,
      "Ġsebanyak": 2567,
      "Ġ#": 2568,
      "è¾¾": 2569,
      "æ¶": 2570,
      "ĠØ¯": 2571,
      "Ġsampai": 2572,
      "KS": 2573,
      "Ġjalan": 2574,
      "lukan": 2575,
      "Ġlah": 2576,
      "udi": 2577,
      "ole": 2578,
      "Ġberkenaan": 2579,
      "à¨²": 2580,
      "Ġwhen": 2581,
      "Ġsekali": 2582,
      "ajib": 2583,
      "Ġover": 2584,
      "æ²¡æľī": 2585,
      "Ġmaj": 2586,
      "ez": 2587,
      "AIN": 2588,
      "ĠThis": 2589,
      "ĠUntuk": 2590,
      "ekat": 2591,
      "Ġprov": 2592,
      "Gred": 2593,
      "ĠSH": 2594,
      "umpulan": 2595,
      "Ġsedang": 2596,
      "Ġabout": 2597,
      "row": 2598,
      "çº¢": 2599,
      "ĠMus": 2600,
      "St": 2601,
      "Ġwaktu": 2602,
      "rah": 2603,
      "Ġkawasan": 2604,
      "Ġmemiliki": 2605,
      "Ġeng": 2606,
      "å¸¦": 2607,
      "ĠKem": 2608,
      "è¨Ģ": 2609,
      "Ġwork": 2610,
      "ology": 2611,
      "ĠPar": 2612,
      "ĠEn": 2613,
      "Ú¤": 2614,
      "ates": 2615,
      "ick": 2616,
      "Ġah": 2617,
      "å®ļ": 2618,
      "\",\"": 2619,
      "Ġop": 2620,
      "ä¸¤": 2621,
      "æĴ": 2622,
      "UNG": 2623,
      "lik": 2624,
      "iss": 2625,
      "æ¬¡": 2626,
      "2013": 2627,
      "æĦŁ": 2628,
      "IV": 2629,
      "wo": 2630,
      "ampu": 2631,
      "ubah": 2632,
      "å®Į": 2633,
      "å¼º": 2634,
      "angsung": 2635,
      "ç»ľ": 2636,
      "Ġtel": 2637,
      "ĠDia": 2638,
      "çĻ»": 2639,
      "ection": 2640,
      "æł·": 2641,
      "ampak": 2642,
      "Ġperc": 2643,
      "à©±": 2644,
      "hasil": 2645,
      "Ġsini": 2646,
      "Ġkamu": 2647,
      "Ġsekolah": 2648,
      "ating": 2649,
      "ulang": 2650,
      "PT": 2651,
      "agaimana": 2652,
      "eth": 2653,
      "utusan": 2654,
      "Ġjuta": 2655,
      "Ġbu": 2656,
      "æ°Ķ": 2657,
      "ĠAN": 2658,
      "inta": 2659,
      "ilangan": 2660,
      "endah": 2661,
      "usnya": 2662,
      "çİ©": 2663,
      "å£": 2664,
      "å¸¸": 2665,
      "alaman": 2666,
      "akin": 2667,
      "alaysian": 2668,
      "Ġdin": 2669,
      "ĠWITH": 2670,
      "Ġakhir": 2671,
      "ementerian": 2672,
      "ĠSy": 2673,
      "ukup": 2674,
      "Ar": 2675,
      "ĠAnda": 2676,
      "èĩ³": 2677,
      "Ap": 2678,
      "Ġsosial": 2679,
      "åħ¬åı¸": 2680,
      "EPAR": 2681,
      "ĠAz": 2682,
      "askan": 2683,
      "ĠWHETHER": 2684,
      "elain": 2685,
      "oth": 2686,
      "Ġibu": 2687,
      "Ġsaja": 2688,
      "indakan": 2689,
      "adang": 2690,
      "Ġjenis": 2691,
      "Ġhak": 2692,
      "Ġma": 2693,
      "ha": 2694,
      "ĠPL": 2695,
      "è¯·": 2696,
      "aki": 2697,
      "ikit": 2698,
      "Ġgr": 2699,
      "fter": 2700,
      "memb": 2701,
      "awan": 2702,
      "iswa": 2703,
      "ĠPerk": 2704,
      "Ġkeadaan": 2705,
      "Ġindustr": 2706,
      "è¿Ľ": 2707,
      "èİ": 2708,
      "Ġmay": 2709,
      "Ġproduk": 2710,
      "TION": 2711,
      "Ġingin": 2712,
      "Ġnegeri": 2713,
      "Ġagar": 2714,
      "æĶ¿": 2715,
      "PS": 2716,
      "ïĥ": 2717,
      "çĭł": 2718,
      "Ġthan": 2719,
      "Ġmedia": 2720,
      "CO": 2721,
      "ĠKerajaan": 2722,
      "Ġdatang": 2723,
      "Ġsebenar": 2724,
      "éĥİ": 2725,
      "ç¤º": 2726,
      "åºĹ": 2727,
      "ĠIm": 2728,
      "96": 2729,
      "ĠØ¨": 2730,
      "Ġ2016": 2731,
      "ĠIa": 2732,
      "erta": 2733,
      "ĠAku": 2734,
      "Ġkemudian": 2735,
      "ĠLumpur": 2736,
      "Ch": 2737,
      "Ġvideo": 2738,
      "alaupun": 2739,
      "SO": 2740,
      "Ġutama": 2741,
      "Ġproduc": 2742,
      "å®ŀ": 2743,
      "Ġjam": 2744,
      "ĠMuh": 2745,
      "éĹ®": 2746,
      "Ġlama": 2747,
      "æĪ¿": 2748,
      "anggung": 2749,
      "Ġmodel": 2750,
      "day": 2751,
      "å®¢": 2752,
      "oran": 2753,
      "æľĭ": 2754,
      "è§Ĩ": 2755,
      "å·¥": 2756,
      "Ġdig": 2757,
      "eli": 2758,
      "ĠEx": 2759,
      "é»": 2760,
      "ĠEX": 2761,
      "ath": 2762,
      "ĠSo": 2763,
      "Ġga": 2764,
      "æıĲ": 2765,
      "ics": 2766,
      "uring": 2767,
      "Ġsemasa": 2768,
      "æĤ¬": 2769,
      "Ġà¨¦": 2770,
      "Ġbay": 2771,
      "Ġim": 2772,
      "å¤Ħ": 2773,
      "Ġkons": 2774,
      "PN": 2775,
      "Ġhendak": 2776,
      "lan": 2777,
      "53": 2778,
      "ediakan": 2779,
      "eorang": 2780,
      "ĠPEN": 2781,
      "ĠPada": 2782,
      "Ġcons": 2783,
      "oug": 2784,
      "dit": 2785,
      "No": 2786,
      "âĢĿï¼Į": 2787,
      "Ġinclud": 2788,
      "æľĭåıĭ": 2789,
      "ejabat": 2790,
      "witter": 2791,
      "Ġonly": 2792,
      "à¨ķ": 2793,
      "æľª": 2794,
      "åĲĪ": 2795,
      "Universiti": 2796,
      "Ġmemang": 2797,
      "ACH": 2798,
      "Ġass": 2799,
      "als": 2800,
      "ç¬¬": 2801,
      "Ġkeluarga": 2802,
      "adb": 2803,
      "ĠSeri": 2804,
      "æ°´": 2805,
      "upa": 2806,
      "omm": 2807,
      "æľĽ": 2808,
      "eles": 2809,
      "Ġkomp": 2810,
      "AATC": 2811,
      "rough": 2812,
      "Ġmasuk": 2813,
      "Ġ24": 2814,
      "Ġhati": 2815,
      "é£Ł": 2816,
      "åĬĽ": 2817,
      "hal": 2818,
      "Ġsen": 2819,
      "Ġpet": 2820,
      "Ġkon": 2821,
      "lin": 2822,
      "ĠAL": 2823,
      "Ġwould": 2824,
      "98": 2825,
      "Ġlike": 2826,
      "äº¤å¾Ģ": 2827,
      "æļ": 2828,
      "ç¦": 2829,
      "ikian": 2830,
      "lec": 2831,
      "ĠMah": 2832,
      "ĠMar": 2833,
      "oint": 2834,
      "Ġ31": 2835,
      "Ġserv": 2836,
      "kep": 2837,
      "ĠTO": 2838,
      "Ġpelbagai": 2839,
      "æĤ¬æ¡Ī": 2840,
      "Ġkecil": 2841,
      "ool": 2842,
      "ublic": 2843,
      "ĠMem": 2844,
      "æķ°": 2845,
      "pek": 2846,
      "ungi": 2847,
      "ĠRes": 2848,
      "åıĹ": 2849,
      "earch": 2850,
      "Ġberkaitan": 2851,
      "Ġinto": 2852,
      "à¯ģ.": 2853,
      "alian": 2854,
      "alankan": 2855,
      "anjut": 2856,
      "Ġwanita": 2857,
      "ker": 2858,
      "ĠPol": 2859,
      "ilang": 2860,
      "ikir": 2861,
      "51": 2862,
      "roup": 2863,
      "Ġlat": 2864,
      "line": 2865,
      "AF": 2866,
      "æ¯į": 2867,
      "Ġnama": 2868,
      "Ġmembantu": 2869,
      "Ġmengg": 2870,
      "ium": 2871,
      "æĺİ": 2872,
      "Ġil": 2873,
      "çľŁ": 2874,
      "TTAT": 2875,
      "Ġsekarang": 2876,
      "Ġmon": 2877,
      "Ġyaitu": 2878,
      "Ġunder": 2879,
      "éĩį": 2880,
      "èµĦè®": 2881,
      "Ġsuch": 2882,
      "ting": 2883,
      "Ġkew": 2884,
      "upan": 2885,
      "ĠMin": 2886,
      "overn": 2887,
      "à©ĭ": 2888,
      "èµĦè®¯": 2889,
      "arat": 2890,
      "Ġ2022": 2891,
      "ny": 2892,
      "Ġthem": 2893,
      "ETS": 2894,
      "TAIN": 2895,
      "æķĻ": 2896,
      "ĠBel": 2897,
      "ä½ı": 2898,
      "Ġbila": 2899,
      "www": 2900,
      "ei": 2901,
      "Ġ)": 2902,
      "asaan": 2903,
      "Ġcomm": 2904,
      "Ġmy": 2905,
      "AAAG": 2906,
      "arikh": 2907,
      "Ġkini": 2908,
      "æ¬¾": 2909,
      "hd": 2910,
      "ext": 2911,
      "Ġpemer": 2912,
      "ç§į": 2913,
      "ild": 2914,
      "Ġà¨¸": 2915,
      "ingkatkan": 2916,
      "RI": 2917,
      "Ġinc": 2918,
      "Ġq": 2919,
      "å¯¼": 2920,
      "AAAC": 2921,
      "redit": 2922,
      "Pert": 2923,
      "å¸ĥ": 2924,
      "¥¿": 2925,
      "çģ": 2926,
      "Ġpost": 2927,
      "ever": 2928,
      "apai": 2929,
      "å¤į": 2930,
      "ahui": 2931,
      "Ġlelaki": 2932,
      "umen": 2933,
      "çłģ": 2934,
      "Ġsal": 2935,
      "engg": 2936,
      "ris": 2937,
      "Ġsemula": 2938,
      "äºĽ": 2939,
      "è¯Ŀ": 2940,
      "Ġterp": 2941,
      "çľ¼": 2942,
      "Ġpela": 2943,
      "ĠHE": 2944,
      "Ġmudah": 2945,
      "ĠÃ": 2946,
      "ARD": 2947,
      "ç¨": 2948,
      "Ġent": 2949,
      "etah": 2950,
      "apun": 2951,
      "ister": 2952,
      "æ¯Ķ": 2953,
      "Ġfirst": 2954,
      "fi": 2955,
      "**": 2956,
      "Ġgo": 2957,
      "åĳ¨": 2958,
      "pert": 2959,
      "Ġris": 2960,
      "63": 2961,
      "åıĳè¡¨": 2962,
      "Ġawal": 2963,
      "uhnya": 2964,
      "kuasa": 2965,
      "Ġselama": 2966,
      "ph": 2967,
      "Ġmenerima": 2968,
      "ikal": 2969,
      "Ġà¨ķ": 2970,
      "Ġbisa": 2971,
      "ubahan": 2972,
      "umi": 2973,
      "ead": 2974,
      "Ġhukum": 2975,
      "çŃī": 2976,
      "PK": 2977,
      "ãĢĮ": 2978,
      "Ġsesuai": 2979,
      "è®®": 2980,
      "ST": 2981,
      "rol": 2982,
      "84": 2983,
      "ãĢį": 2984,
      "ukai": 2985,
      "Ġfin": 2986,
      "urr": 2987,
      "ĠPas": 2988,
      "å¹¶": 2989,
      "entukan": 2990,
      "Ġmaklumat": 2991,
      "ĠPENG": 2992,
      "ork": 2993,
      "Ġher": 2994,
      "lish": 2995,
      "ĠBank": 2996,
      "HD": 2997,
      "åº¦": 2998,
      "uhkan": 2999,
      "ĠKUALA": 3000,
      "Ġkembali": 3001,
      "æ»¡": 3002,
      "Ġekonomi": 3003,
      "Ø¬": 3004,
      "https": 3005,
      "AZ": 3006,
      "ingkatan": 3007,
      "ĠSel": 3008,
      "urun": 3009,
      "ammad": 3010,
      "akap": 3011,
      "200": 3012,
      "TTTC": 3013,
      "OG": 3014,
      "ugas": 3015,
      "æĪĳä»¬": 3016,
      "Ġcol": 3017,
      "éĶ": 3018,
      "è¥¿": 3019,
      "dang": 3020,
      "Ġbelum": 3021,
      "ĠBER": 3022,
      "ä½į": 3023,
      "agement": 3024,
      "åĮº": 3025,
      "Ġfil": 3026,
      "Ġins": 3027,
      "Ġmampu": 3028,
      "embangan": 3029,
      "Ġbec": 3030,
      "ç½ĳç»ľ": 3031,
      "Ġtempoh": 3032,
      "Ġbahan": 3033,
      "97": 3034,
      "æĸ¯": 3035,
      "iks": 3036,
      "Ġsay": 3037,
      "Ġinst": 3038,
      "ujud": 3039,
      "OK": 3040,
      "ç«Ł": 3041,
      "ganis": 3042,
      "Ġ23": 3043,
      "Ġpenc": 3044,
      "Ġpak": 3045,
      "Ġkurang": 3046,
      "dari": 3047,
      "ä¸ļ": 3048,
      "Ġrem": 3049,
      "ERE": 3050,
      "ited": 3051,
      "ARI": 3052,
      "Ġken": 3053,
      "Ġwell": 3054,
      "ALS": 3055,
      "ĠFacebook": 3056,
      "Men": 3057,
      "æĭī": 3058,
      "angga": 3059,
      "çī©": 3060,
      "Ġsy": 3061,
      "ted": 3062,
      "Ġindivid": 3063,
      "Ġterd": 3064,
      "ern": 3065,
      "Ġhigh": 3066,
      "ç³": 3067,
      "ilayah": 3068,
      "è£": 3069,
      "OF": 3070,
      "åĲĥ": 3071,
      "ĠPendidikan": 3072,
      "ĠJika": 3073,
      "Ġmakanan": 3074,
      "ĠTerima": 3075,
      "ä»Ĭ": 3076,
      "illion": 3077,
      ",,,,,,,,,,,,,,,,,,,,,,,,,,,,,,,,,,,,,,,,,,,,,,,,,,,,,,,,,,,,,,,,": 3078,
      "amil": 3079,
      "ĠRas": 3080,
      "Ġsome": 3081,
      "Ġdic": 3082,
      "ä¿Ŀ": 3083,
      "å°ĳ": 3084,
      ");": 3085,
      "æŁ¥": 3086,
      "uncit": 3087,
      "ĠMak": 3088,
      "ĠEL": 3089,
      "TUR": 3090,
      "Ġtwo": 3091,
      "ove": 3092,
      "Ġmah": 3093,
      "alami": 3094,
      "adual": 3095,
      "ĠSU": 3096,
      "ç»Ń": 3097,
      "åįİ": 3098,
      "ampung": 3099,
      "ran": 3100,
      "ewan": 3101,
      "aksud": 3102,
      "Ġ27": 3103,
      "araan": 3104,
      "ĠTak": 3105,
      "uju": 3106,
      "Ġdiberikan": 3107,
      "æ¼Ķ": 3108,
      "ðŁ": 3109,
      "ç¼": 3110,
      "ĠÙĪ": 3111,
      "ELL": 3112,
      "åģļ": 3113,
      "Ġditer": 3114,
      "çī¹": 3115,
      "enggan": 3116,
      "ba": 3117,
      "ANU": 3118,
      "ĠPREPAR": 3119,
      "Ġaut": 3120,
      "à®¸": 3121,
      "der": 3122,
      "Ġneed": 3123,
      "ĠSIM": 3124,
      "anian": 3125,
      "éĩĳ": 3126,
      "Ġwar": 3127,
      "aktor": 3128,
      "Ġbat": 3129,
      "etahui": 3130,
      "ØŃ": 3131,
      "ĠTR": 3132,
      "ç¬ĳ": 3133,
      "æĪĸ": 3134,
      "Ġjust": 3135,
      "ĠMalaysian": 3136,
      "95": 3137,
      "ä»İ": 3138,
      "ç»Ļ": 3139,
      "éħĴ": 3140,
      "amah": 3141,
      "Ġsupaya": 3142,
      "æĹħ": 3143,
      "Ġtem": 3144,
      "uz": 3145,
      "ĠMelayu": 3146,
      "åĶ": 3147,
      "asil": 3148,
      "ç²ī": 3149,
      "uba": 3150,
      "Malaysia": 3151,
      "app": 3152,
      "ALL": 3153,
      "ife": 3154,
      "Ġfollow": 3155,
      "lac": 3156,
      "Ġberdasarkan": 3157,
      "ĠJabatan": 3158,
      "uf": 3159,
      "Úł": 3160,
      "akhir": 3161,
      "éļ¾": 3162,
      "ukar": 3163,
      "Ġinf": 3164,
      "lob": 3165,
      "å²ģ": 3166,
      "ĠEng": 3167,
      "isah": 3168,
      "________________________________": 3169,
      "Ġpelajar": 3170,
      "éŁ": 3171,
      "ham": 3172,
      "Ġlak": 3173,
      "alahan": 3174,
      "ative": 3175,
      "CCG": 3176,
      "ullah": 3177,
      "74": 3178,
      "ĠKetua": 3179,
      "UMPUR": 3180,
      "åĳ³": 3181,
      "mb": 3182,
      "è§ģ": 3183,
      "Dalam": 3184,
      "SIA": 3185,
      "aturan": 3186,
      "ebih": 3187,
      "æľĢæĸ°": 3188,
      "get": 3189,
      "Ġthrough": 3190,
      "nu": 3191,
      "arian": 3192,
      "evelopment": 3193,
      "ongsi": 3194,
      "inggal": 3195,
      "Ġsyarikat": 3196,
      "Ġ22": 3197,
      "ĠPegawai": 3198,
      "SK": 3199,
      "ibatkan": 3200,
      "urus": 3201,
      "ĠPert": 3202,
      "Ġ26": 3203,
      "å»": 3204,
      "quir": 3205,
      "Ġahli": 3206,
      "uri": 3207,
      "Ġdiken": 3208,
      "sel": 3209,
      "æĮĩ": 3210,
      "CLES": 3211,
      "AATG": 3212,
      "Ġsol": 3213,
      "Ad": 3214,
      "Ġ50": 3215,
      "ãģ": 3216,
      "ax": 3217,
      "elaskan": 3218,
      "Ġmalam": 3219,
      "angun": 3220,
      "overnment": 3221,
      "73": 3222,
      "Ġmengikut": 3223,
      "Ġkat": 3224,
      "Ġyg": 3225,
      "ĠKeb": 3226,
      "eluarkan": 3227,
      "Ġangg": 3228,
      "uatan": 3229,
      "ĠLUMPUR": 3230,
      "etapkan": 3231,
      "Ġhel": 3232,
      "yarat": 3233,
      "ĠBhd": 3234,
      "éľ²": 3235,
      "SP": 3236,
      "Ġspec": 3237,
      "EX": 3238,
      "Ġmain": 3239,
      "led": 3240,
      "akkan": 3241,
      "ĠNew": 3242,
      "è§Ĵ": 3243,
      "à©°": 3244,
      "ulit": 3245,
      "ä¸ºäºĨ": 3246,
      "åİŁ": 3247,
      "RES": 3248,
      "å¦»": 3249,
      "Ġdibuat": 3250,
      "åĳĬ": 3251,
      "Ġsm": 3252,
      "luan": 3253,
      "ĠJan": 3254,
      "tra": 3255,
      "Ġmahu": 3256,
      "ected": 3257,
      "elit": 3258,
      "tara": 3259,
      "oad": 3260,
      "bo": 3261,
      "urs": 3262,
      "ĠInstagram": 3263,
      "Ġph": 3264,
      "æĭĽ": 3265,
      "pos": 3266,
      "ĠRuncit": 3267,
      "ople": 3268,
      "Ġpelak": 3269,
      "Ġseluruh": 3270,
      "è¿½": 3271,
      "64": 3272,
      "Ġ28": 3273,
      "orong": 3274,
      "ä¸ĸ": 3275,
      "ĠCOM": 3276,
      "NNNN": 3277,
      "uch": 3278,
      "ä»¤": 3279,
      "Ġbadan": 3280,
      "Ġsaat": 3281,
      "aun": 3282,
      "ms": 3283,
      "èĲ": 3284,
      "ADING": 3285,
      "ator": 3286,
      "Ġdok": 3287,
      "entu": 3288,
      "ision": 3289,
      "adah": 3290,
      "sanaan": 3291,
      "ĠTeknologi": 3292,
      "EJ": 3293,
      "è¯ķ": 3294,
      "åĨį": 3295,
      "Ġafter": 3296,
      "UH": 3297,
      "ĠMaj": 3298,
      "sur": 3299,
      "TICLES": 3300,
      "fore": 3301,
      "ĠTapi": 3302,
      "ORT": 3303,
      "ĠIntern": 3304,
      "Ġdec": 3305,
      "de": 3306,
      "GCCG": 3307,
      "ĠJun": 3308,
      "ific": 3309,
      "èĻ": 3310,
      "Ġguru": 3311,
      "Ġmemer": 3312,
      "åĤ": 3313,
      "Ġà¨¹": 3314,
      "éĢī": 3315,
      "AYA": 3316,
      "ĠAbu": 3317,
      "ĠMohd": 3318,
      "Ġday": 3319,
      "500": 3320,
      "ĠOn": 3321,
      "ä»ĸä»¬": 3322,
      "bl": 3323,
      "æĺŁ": 3324,
      "ĠSc": 3325,
      "Ġà¨µ": 3326,
      "Ġsystem": 3327,
      "Ġbuku": 3328,
      "Ø§ÙĨ": 3329,
      "ĠSp": 3330,
      "Ġberc": 3331,
      "Ġkena": 3332,
      "Ġje": 3333,
      "Ġ2015": 3334,
      "Ġmendapatkan": 3335,
      "Ġwhat": 3336,
      "undang": 3337,
      "iada": 3338,
      "mal": 3339,
      "urid": 3340,
      "äºļ": 3341,
      "TATC": 3342,
      "ju": 3343,
      "æ³¨": 3344,
      "ANGAN": 3345,
      "ä¿¡": 3346,
      "åĥ": 3347,
      "Ġkan": 3348,
      "Ġterl": 3349,
      "war": 3350,
      "æŀĹ": 3351,
      "å¤ª": 3352,
      "etapi": 3353,
      "udit": 3354,
      "Ġtindakan": 3355,
      "çĽ®": 3356,
      "æŃ£": 3357,
      "TTTG": 3358,
      "emen": 3359,
      "Ġterjadi": 3360,
      "ĠSelangor": 3361,
      "Ġpolitik": 3362,
      "ĠMAL": 3363,
      "Pada": 3364,
      "Ø£": 3365,
      "Ġed": 3366,
      "io": 3367,
      "83": 3368,
      "Ġnamun": 3369,
      "ILAR": 3370,
      "ĠAhmad": 3371,
      "Ġknow": 3372,
      "BER": 3373,
      "åı°": 3374,
      "ui": 3375,
      "è¸": 3376,
      "LIS": 3377,
      "amaan": 3378,
      "dn": 3379,
      "çł´": 3380,
      "Di": 3381,
      "åķĨ": 3382,
      "äºĳ": 3383,
      "ĠSeti": 3384,
      "æĴŃ": 3385,
      "Ind": 3386,
      "Ġpur": 3387,
      "apatan": 3388,
      "à¨¹": 3389,
      "kes": 3390,
      "ayar": 3391,
      "Ġuj": 3392,
      "ĠRep": 3393,
      "oo": 3394,
      "Ġbiasa": 3395,
      "è®º": 3396,
      "inggu": 3397,
      "ĉč": 3398,
      "æīį": 3399,
      "æĿ¿": 3400,
      "ASI": 3401,
      "Ġpre": 3402,
      "antuan": 3403,
      "ATION": 3404,
      "Ġberg": 3405,
      "Sumber": 3406,
      "Ġever": 3407,
      "éĹ¨": 3408,
      "ADA": 3409,
      "Ĺı": 3410,
      "jawab": 3411,
      "Ġaktiviti": 3412,
      "Ġbud": 3413,
      "ekut": 3414,
      "alisis": 3415,
      "ompok": 3416,
      "Ġmenarik": 3417,
      "usah": 3418,
      "ĉčĠ": 3419,
      "aftar": 3420,
      "ten": 3421,
      "ïĤ·": 3422,
      "ĠTel": 3423,
      "DUC": 3424,
      "Ġbahagian": 3425,
      "ĠSIMILAR": 3426,
      "osp": 3427,
      "ĠSabah": 3428,
      "GCGC": 3429,
      "ØĮ": 3430,
      "ĠHal": 3431,
      "ĠDengan": 3432,
      "OLAH": 3433,
      "ĠTidak": 3434,
      "é£ŀ": 3435,
      "ĠStr": 3436,
      "Ġagama": 3437,
      "Ġpendidikan": 3438,
      "Ġcount": 3439,
      "tidak": 3440,
      "ĠUN": 3441,
      "åĮħ": 3442,
      "è§īå¾Ĺ": 3443,
      "å¸Ĥ": 3444,
      "ĠHar": 3445,
      "åºĶ": 3446,
      "Ġdiff": 3447,
      "Ġpergi": 3448,
      "ause": 3449,
      "Ġtiada": 3450,
      "ĠÙĥ": 3451,
      "æ¯ı": 3452,
      "Ġmenyebabkan": 3453,
      "ekerj": 3454,
      "==": 3455,
      "å·´": 3456,
      "ĠUm": 3457,
      "ĠJalan": 3458,
      "Pr": 3459,
      "Ġusaha": 3460,
      "62": 3461,
      "Ġpener": 3462,
      "Ġpasti": 3463,
      "ĠKel": 3464,
      "atis": 3465,
      "ĠSDN": 3466,
      "Saya": 3467,
      "ĠPut": 3468,
      "ven": 3469,
      "meny": 3470,
      "ature": 3471,
      "ä½³ç¤¼ç½ĳ": 3472,
      "ORE": 3473,
      "ĠØ³": 3474,
      "wn": 3475,
      "ä¸Ŀ": 3476,
      "iversity": 3477,
      "Ġberjaya": 3478,
      "hidupan": 3479,
      "EKOLAH": 3480,
      "ĠBHD": 3481,
      "ura": 3482,
      "elamatan": 3483,
      "Â°": 3484,
      "Ġpres": 3485,
      "Ġsetelah": 3486,
      "Ġtangan": 3487,
      "Ġsitu": 3488,
      "åĪ©": 3489,
      "Ġgener": 3490,
      "ANA": 3491,
      "Ġï¿½": 3492,
      "æī¾": 3493,
      "ĠAt": 3494,
      "ĊÂł": 3495,
      "Ġmul": 3496,
      "72": 3497,
      "ambahan": 3498,
      "Ġvia": 3499,
      "ĠYa": 3500,
      "ahami": 3501,
      "lebih": 3502,
      "ç«Ļ": 3503,
      "å¤§é©¬": 3504,
      "ĠSM": 3505,
      "åĵĪ": 3506,
      "iranya": 3507,
      "pan": 3508,
      "à®Łà®¤": 3509,
      "71": 3510,
      "ĠUM": 3511,
      "ass": 3512,
      "aph": 3513,
      "ban": 3514,
      "cc": 3515,
      "ĠProgram": 3516,
      "çĶ±": 3517,
      "ĠSarawak": 3518,
      "å®ī": 3519,
      "æ·": 3520,
      "Ġsumber": 3521,
      "æŁ": 3522,
      "Ġtetap": 3523,
      "utup": 3524,
      "ft": 3525,
      "andard": 3526,
      "èı": 3527,
      "çĻ»å½ķ": 3528,
      "ANGS": 3529,
      "Ġcerita": 3530,
      "akarta": 3531,
      "amad": 3532,
      "é¡»": 3533,
      "Ġsejak": 3534,
      "Ġkos": 3535,
      "ĠBahasa": 3536,
      "QU": 3537,
      "åĲ¦": 3538,
      "âĢĿ.": 3539,
      "ams": 3540,
      "é¥": 3541,
      "ĠKep": 3542,
      "ATIONS": 3543,
      "Ġcl": 3544,
      "åĵģ": 3545,
      "AAAAT": 3546,
      "åĽłä¸º": 3547,
      "Ġå¼ķçĶ¨": 3548,
      "ĠSur": 3549,
      "Ġkehidupan": 3550,
      "ĠPAP": 3551,
      "93": 3552,
      "Ġprof": 3553,
      "Ġreport": 3554,
      "ulkan": 3555,
      "Ġbenar": 3556,
      "éªĮ": 3557,
      "ontoh": 3558,
      "Ġnow": 3559,
      "uanya": 3560,
      "vel": 3561,
      "ç±": 3562,
      "nam": 3563,
      "Ġkeputusan": 3564,
      "ĠSW": 3565,
      "ohonan": 3566,
      "ĠWh": 3567,
      "åĮ»": 3568,
      "sed": 3569,
      "ains": 3570,
      "amin": 3571,
      "Harga": 3572,
      "itif": 3573,
      "èŃ": 3574,
      "put": 3575,
      "gr": 3576,
      "ĠSe": 3577,
      "ĠNov": 3578,
      "çºª": 3579,
      "AMA": 3580,
      "ĠØª": 3581,
      "ç»ĵæŀľ": 3582,
      "niagaan": 3583,
      "é¡¶": 3584,
      "masing": 3585,
      "Ġhow": 3586,
      "å®¹": 3587,
      "300": 3588,
      "olong": 3589,
      "inj": 3590,
      "Ġshould": 3591,
      "ç»§": 3592,
      "enyataan": 3593,
      "bu": 3594,
      "Pen": 3595,
      "à©Ī": 3596,
      "dana": 3597,
      "Ġbegitu": 3598,
      "poran": 3599,
      "Ġgood": 3600,
      "edu": 3601,
      "AAGC": 3602,
      "Ġsebenarnya": 3603,
      "ÂłÂł": 3604,
      "egang": 3605,
      "embaga": 3606,
      "Ġinformation": 3607,
      "Ġkuasa": 3608,
      "Ġuse": 3609,
      "ency": 3610,
      "åĭ": 3611,
      "Ġmet": 3612,
      "Ġbidang": 3613,
      "ĠMereka": 3614,
      "ajar": 3615,
      "Ġjelas": 3616,
      "åĥı": 3617,
      "BB": 3618,
      "hasilkan": 3619,
      "iman": 3620,
      "äº«": 3621,
      "Ġcap": 3622,
      "à¨¦": 3623,
      "Ġberl": 3624,
      "Ġgambar": 3625,
      "Ġ*": 3626,
      "Ġperempuan": 3627,
      "Ġdasar": 3628,
      "ELANG": 3629,
      "sif": 3630,
      "âĢĺ": 3631,
      "okok": 3632,
      "è¡¨ç¤º": 3633,
      "ĠComp": 3634,
      "ä»ĺ": 3635,
      "Ġlook": 3636,
      "Ġyears": 3637,
      "etahuan": 3638,
      "AV": 3639,
      "Ġshow": 3640,
      "Ġfac": 3641,
      "æĲľ": 3642,
      "aila": 3643,
      "ãĢĤâĢĿ": 3644,
      "åıĸ": 3645,
      "engganu": 3646,
      "AYSIA": 3647,
      "dis": 3648,
      "elaki": 3649,
      "æĦ¿": 3650,
      "other": 3651,
      "gu": 3652,
      "æļ´": 3653,
      "Ġmost": 3654,
      "Ġbak": 3655,
      "Ġkeper": 3656,
      "Ġayat": 3657,
      "ident": 3658,
      "åŃ©": 3659,
      "Ġisu": 3660,
      "Ã©": 3661,
      "ros": 3662,
      "Seb": 3663,
      "ton": 3664,
      "å©Ĩ": 3665,
      "TAAC": 3666,
      "iksaan": 3667,
      "Ġperson": 3668,
      "åı£": 3669,
      "ets": 3670,
      "uma": 3671,
      "ĠNamun": 3672,
      "çķĻ": 3673,
      "ä½¿": 3674,
      "å´": 3675,
      "alat": 3676,
      "ahang": 3677,
      "oto": 3678,
      "ism": 3679,
      "echnology": 3680,
      "rop": 3681,
      "Ġgame": 3682,
      "END": 3683,
      "à®ķà®ª": 3684,
      "Ġpeople": 3685,
      "Ġes": 3686,
      "adian": 3687,
      "ĠApr": 3688,
      "à¨¼": 3689,
      "ale": 3690,
      "Ġbank": 3691,
      "Ġtujuan": 3692,
      "Ġ40": 3693,
      "awal": 3694,
      "çīĪ": 3695,
      "elitian": 3696,
      "æĪ·": 3697,
      "kar": 3698,
      "Ġà¨¨": 3699,
      "Ġ2014": 3700,
      "ekutuan": 3701,
      "ĠSdn": 3702,
      "82": 3703,
      "61": 3704,
      "Ġsedikit": 3705,
      "ä»Ģ": 3706,
      "alon": 3707,
      "Ġbetul": 3708,
      "ĠÙĬ": 3709,
      "Ġgun": 3710,
      "ahw": 3711,
      "uktur": 3712,
      "fa": 3713,
      "UP": 3714,
      "ainya": 3715,
      "ĠCONTAIN": 3716,
      "ERAH": 3717,
      "èį": 3718,
      "likasi": 3719,
      "ineering": 3720,
      "uli": 3721,
      "ĠAnd": 3722,
      "Ġhubungan": 3723,
      "otor": 3724,
      "Ġmake": 3725,
      "ĠPel": 3726,
      "OOD": 3727,
      "ĠDes": 3728,
      "Ġ2023": 3729,
      "ATTC": 3730,
      "adakan": 3731,
      "itkan": 3732,
      "Ġras": 3733,
      "Ġà®Ĵ": 3734,
      "Ġintern": 3735,
      "VID": 3736,
      "ï¼ģï¼ģ": 3737,
      "94": 3738,
      "èµĦ": 3739,
      "ix": 3740,
      "reen": 3741,
      "ĠCon": 3742,
      "à®©à®°": 3743,
      "è®¤": 3744,
      "Ġend": 3745,
      "ä»»": 3746,
      "ety": 3747,
      "Ġbarang": 3748,
      "Ġumum": 3749,
      "mon": 3750,
      "Ġfr": 3751,
      "æ¯įäº²": 3752,
      "æĮģ": 3753,
      "pem": 3754,
      "Ġcukup": 3755,
      "Ġseseorang": 3756,
      "atch": 3757,
      "ICAL": 3758,
      "ough": 3759,
      "ĠYou": 3760,
      "pemb": 3761,
      "view": 3762,
      "ĠTuan": 3763,
      "ji": 3764,
      "Â·Â·": 3765,
      "Selangor": 3766,
      "IH": 3767,
      "ants": 3768,
      "):": 3769,
      "ĠARTICLES": 3770,
      "ä¸ľ": 3771,
      "å·ŀ": 3772,
      "insi": 3773,
      "è¿ĳ": 3774,
      "ATES": 3775,
      "Ġav": 3776,
      "Ġeven": 3777,
      "Ġdepan": 3778,
      "ç²īä¸Ŀ": 3779,
      "é¡µ": 3780,
      "Ġthese": 3781,
      "lass": 3782,
      "ins": 3783,
      "Ġselalu": 3784,
      "ween": 3785,
      "Ġcor": 3786,
      "ä¸įçŁ¥": 3787,
      "Ġbek": 3788,
      "CES": 3789,
      "Ġwhile": 3790,
      "Ġseri": 3791,
      "èŃ¦": 3792,
      "äº¡": 3793,
      "ä»·": 3794,
      "ĠBr": 3795,
      "ulau": 3796,
      "Ġ..": 3797,
      "alnya": 3798,
      "à®µà®¤": 3799,
      "ĠPAPER": 3800,
      "uter": 3801,
      "Ġsekitar": 3802,
      "Ġdesign": 3803,
      "Ġsuami": 3804,
      "elakang": 3805,
      "Ġtop": 3806,
      "adem": 3807,
      "ulai": 3808,
      "Ġkereta": 3809,
      "æµ·": 3810,
      "âĢĵâĢĵâĢĵâĢĵâĢĵâĢĵâĢĵâĢĵ": 3811,
      "Ġpan": 3812,
      "be": 3813,
      "urkan": 3814,
      "iko": 3815,
      "ekan": 3816,
      "ĠKementerian": 3817,
      "RIC": 3818,
      "81": 3819,
      "0000": 3820,
      "Ġbl": 3821,
      "æĬķ": 3822,
      "tak": 3823,
      "Ġlepas": 3824,
      "Ġåıĳè¡¨": 3825,
      "Ġadd": 3826,
      "Ġmemastikan": 3827,
      "ancial": 3828,
      "ç½ĳçº¢": 3829,
      "Ġcontoh": 3830,
      "ias": 3831,
      "ĠAw": 3832,
      "EF": 3833,
      "ands": 3834,
      "uny": 3835,
      "Ġdisebut": 3836,
      "EGERI": 3837,
      "Ġperj": 3838,
      "Ġu": 3839,
      "ä½ķ": 3840,
      "Ġindividu": 3841,
      "ATTG": 3842,
      "Ġbas": 3843,
      "Ġeks": 3844,
      "agaiman": 3845,
      "ä»£": 3846,
      "è§£": 3847,
      "yan": 3848,
      "egram": 3849,
      "ungai": 3850,
      "ikap": 3851,
      "ĠAss": 3852,
      "Ġperkhidmatan": 3853,
      "bel": 3854,
      "onton": 3855,
      "Ġbag": 3856,
      "Ġret": 3857,
      "ecara": 3858,
      "Ġbenda": 3859,
      "INA": 3860,
      "Â»": 3861,
      "é¢ĺ": 3862,
      "umbuhan": 3863,
      "è¿Ĳ": 3864,
      "co": 3865,
      "ful": 3866,
      "ministr": 3867,
      "ĠAir": 3868,
      "alas": 3869,
      "Ġdef": 3870,
      "Ġlangsung": 3871,
      "ĠMuhammad": 3872,
      "Ġexper": 3873,
      "à¨Ĩ": 3874,
      "æĶ¾": 3875,
      "å¹³": 3876,
      "ili": 3877,
      "abar": 3878,
      "amanya": 3879,
      "æ¯Ľ": 3880,
      "Ġmembawa": 3881,
      "åıĺ": 3882,
      "lus": 3883,
      "esan": 3884,
      "ĠHEADING": 3885,
      "ä¼´": 3886,
      "Ġparti": 3887,
      "ĠJawatan": 3888,
      "Ġkau": 3889,
      "à¨®": 3890,
      "Ġà®ĩà®°": 3891,
      "egr": 3892,
      "ikuti": 3893,
      "Ġpilihan": 3894,
      "Ø§Ø": 3895,
      "å°±æĺ¯": 3896,
      "ä¼ł": 3897,
      "Ġide": 3898,
      "aham": 3899,
      "Ġbelajar": 3900,
      "çķĮ": 3901,
      "è¸ª": 3902,
      "ĠHak": 3903,
      "ç»§ç»Ń": 3904,
      "Ġsuka": 3905,
      "imum": 3906,
      "kr": 3907,
      "iba": 3908,
      "Ġco": 3909,
      "olongan": 3910,
      "Ġ2013": 3911,
      "ĠSet": 3912,
      "uddin": 3913,
      "pm": 3914,
      "till": 3915,
      "ĠPet": 3916,
      "Ġpop": 3917,
      "iter": 3918,
      "èģĶ": 3919,
      "Ġkhus": 3920,
      "cus": 3921,
      "Ġbuah": 3922,
      "Ġdih": 3923,
      "Ġsimp": 3924,
      "eda": 3925,
      "tikel": 3926,
      "ĠDir": 3927,
      "ĠSO": 3928,
      "Ġ03": 3929,
      "Ġback": 3930,
      "éĵ": 3931,
      "ĠUs": 3932,
      "ĠMat": 3933,
      "ĠKita": 3934,
      "æĭį": 3935,
      "ĠSri": 3936,
      "à©ģ": 3937,
      "ATCC": 3938,
      "embilan": 3939,
      "åħ¬å¼Ģ": 3940,
      "impin": 3941,
      "Ġkajian": 3942,
      "ospital": 3943,
      "antung": 3944,
      "èĢģæĿ¿": 3945,
      "Ġbalik": 3946,
      "Ġtadi": 3947,
      "ission": 3948,
      "Ġ69": 3949,
      "ĠSing": 3950,
      "ĠKEB": 3951,
      "æĢ¥": 3952,
      "Ġloc": 3953,
      "Ġkewangan": 3954,
      "Ġalam": 3955,
      "æį®": 3956,
      "UND": 3957,
      "è·¯": 3958,
      "Ġeff": 3959,
      "Ġtrad": 3960,
      "PL": 3961,
      "irkan": 3962,
      "Ġwhere": 3963,
      "ĠBers": 3964,
      "ulullah": 3965,
      "ĠWe": 3966,
      "udara": 3967,
      "ĠKar": 3968,
      "lobal": 3969,
      "à®ªà®¤": 3970,
      "angkat": 3971,
      "ĠKh": 3972,
      "ĠTan": 3973,
      "ĠPres": 3974,
      "Ġkap": 3975,
      "ä¸ĵ": 3976,
      "Ġpembelajaran": 3977,
      "Ġwang": 3978,
      "Ġdemikian": 3979,
      "è¿ĩåİ»": 3980,
      "ustom": 3981,
      "ĠBINTI": 3982,
      "Ġten": 3983,
      "å´©": 3984,
      "ype": 3985,
      "Ġdekat": 3986,
      "Ġ09": 3987,
      "å¯Ĩçłģ": 3988,
      "ĠII": 3989,
      "pend": 3990,
      "esi": 3991,
      "Ġmade": 3992,
      "Ġsin": 3993,
      "ements": 3994,
      "2012": 3995,
      "è®°": 3996,
      "Ġsegala": 3997,
      "çº¦": 3998,
      "ewangan": 3999,
      "ä»Ģä¹Ī": 4000,
      "Ġbagaimana": 4001,
      "hip": 4002,
      "ences": 4003,
      "éħĴåºĹ": 4004,
      "ling": 4005,
      "by": 4006,
      "Ġsign": 4007,
      "atik": 4008,
      "elur": 4009,
      "ARAN": 4010,
      "èĹı": 4011,
      "Ġmeningkatkan": 4012,
      "awat": 4013,
      "auh": 4014,
      "zah": 4015,
      "Ġde": 4016,
      "isan": 4017,
      "eck": 4018,
      "OHOR": 4019,
      "AAGG": 4020,
      "Ġpagi": 4021,
      "ious": 4022,
      "æĺ¯åĲ¦": 4023,
      "ACHIN": 4024,
      "Untuk": 4025,
      "atas": 4026,
      "ĠDA": 4027,
      "tober": 4028,
      "asama": 4029,
      "KAN": 4030,
      "INGS": 4031,
      "unikasi": 4032,
      "Ġempat": 4033,
      "ovid": 4034,
      "Ġmasing": 4035,
      "etika": 4036,
      "anggungjawab": 4037,
      "RU": 4038,
      "Ġsemakin": 4039,
      "Ġprojek": 4040,
      "ĠSept": 4041,
      "antar": 4042,
      "FOR": 4043,
      "kah": 4044,
      "ahagian": 4045,
      "Ġlog": 4046,
      "ments": 4047,
      "Ġmaks": 4048,
      "ĠApril": 4049,
      "ĠNabi": 4050,
      "çĬ": 4051,
      "Ġberas": 4052,
      "Ġterut": 4053,
      "yatakan": 4054,
      "Ġberbanding": 4055,
      "Ġdaerah": 4056,
      "ARTS": 4057,
      "Ġlong": 4058,
      "ĠJohor": 4059,
      "dasarkan": 4060,
      "æŃ»": 4061,
      "Tempatan": 4062,
      "Ġmengatakan": 4063,
      "91": 4064,
      "Ġperubahan": 4065,
      "Ġbekerja": 4066,
      "YL": 4067,
      "adalah": 4068,
      "æµģ": 4069,
      "Ġilmu": 4070,
      "entang": 4071,
      "èµ°": 4072,
      "ç¯": 4073,
      "Sem": 4074,
      "Ġtahap": 4075,
      "åį´": 4076,
      "æĹħæ¸¸": 4077,
      "ecil": 4078,
      "ĠPAS": 4079,
      "Ġstart": 4080,
      "Ġmenyatakan": 4081,
      "å¨ĺ": 4082,
      "ĠBO": 4083,
      "hormat": 4084,
      "%)": 4085,
      "Ġshare": 4086,
      "wh": 4087,
      "gn": 4088,
      "Pasar": 4089,
      "Ġlar": 4090,
      "æīĭæľº": 4091,
      "Ġevery": 4092,
      "ancangan": 4093,
      "Ġvari": 4094,
      "Ġpembangunan": 4095,
      "Ġpenggunaan": 4096,
      "IGH": 4097,
      "ĠAB": 4098,
      "Ġdiffer": 4099,
      "Perempuan": 4100,
      "antai": 4101,
      "ently": 4102,
      "lm": 4103,
      "AACC": 4104,
      "ĠSub": 4105,
      "257": 4106,
      "Ġger": 4107,
      "æ¬²": 4108,
      "MS": 4109,
      "Ġway": 4110,
      "èĦ¸": 4111,
      "å¸Ī": 4112,
      "Ġpengguna": 4113,
      "ube": 4114,
      "ailable": 4115,
      "ĠNO": 4116,
      "ty": 4117,
      "æºĥ": 4118,
      "LES": 4119,
      "ç»¿": 4120,
      "ake": 4121,
      "ĠAPP": 4122,
      "fr": 4123,
      "ĠKom": 4124,
      "Ġcuba": 4125,
      "Ġpower": 4126,
      "INCLUDING": 4127,
      "Ġà®ħà®¤": 4128,
      "ocial": 4129,
      "Ġterj": 4130,
      "ðĿĳ": 4131,
      "Ġmelibatkan": 4132,
      "Ġlaporan": 4133,
      "Ġmis": 4134,
      "Ġweb": 4135,
      "TBK": 4136,
      "forman": 4137,
      "BO": 4138,
      "Ġjangan": 4139,
      "åįķ": 4140,
      "Ġbo": 4141,
      "Is": 4142,
      "æ£": 4143,
      "Ġtertentu": 4144,
      "ITT": 4145,
      "Ġhere": 4146,
      "lat": 4147,
      "Ġbaharu": 4148,
      "åĤ»": 4149,
      "å®¾": 4150,
      "Ġbeing": 4151,
      "Ġmencari": 4152,
      "Ġstrateg": 4153,
      "Ùī": 4154,
      "çĹħ": 4155,
      "Ġà®ħà®µà®°": 4156,
      "aut": 4157,
      "å´©æºĥ": 4158,
      "çı": 4159,
      "ä¸įåĩº": 4160,
      "éĢ¼": 4161,
      "Ġbetween": 4162,
      "ä»¶": 4163,
      "ç«ł": 4164,
      "awi": 4165,
      "KM": 4166,
      "OUS": 4167,
      "MAJ": 4168,
      "kem": 4169,
      "ELANGOR": 4170,
      "åĪ¶": 4171,
      "à©Ĥ": 4172,
      "éĺ¿": 4173,
      "oci": 4174,
      "Ġpanjang": 4175,
      "ç©º": 4176,
      "adbir": 4177,
      "çİĭ": 4178,
      "Ġpay": 4179,
      "TAB": 4180,
      "kepada": 4181,
      "hi": 4182,
      "Ġused": 4183,
      "CR": 4184,
      "269": 4185,
      "isme": 4186,
      "ector": 4187,
      "TATG": 4188,
      "èĤ¡": 4189,
      "Ġhendaklah": 4190,
      "çĽ´æĴŃ": 4191,
      "Ġdilihat": 4192,
      "``": 4193,
      "ukur": 4194,
      "åĪĨæīĭ": 4195,
      "Ġemp": 4196,
      "å®Įåħ¨": 4197,
      "ĠPREPARATIONS": 4198,
      "é¢ĳ": 4199,
      "Ġcour": 4200,
      "ĠKalau": 4201,
      "uid": 4202,
      "akai": 4203,
      "udukan": 4204,
      "Ĥ¬": 4205,
      "è´¢": 4206,
      "ider": 4207,
      "ĠCONTAINING": 4208,
      "ä¸įæĺ¯": 4209,
      "Ġval": 4210,
      "read": 4211,
      "ITI": 4212,
      "ç¥ŀ": 4213,
      "Ġnaik": 4214,
      "å¾ģ": 4215,
      "Ġperi": 4216,
      "ĠMala": 4217,
      "Tiada": 4218,
      "Ġ2012": 4219,
      "ĨĴ": 4220,
      "ĠSelain": 4221,
      "Ġpot": 4222,
      "ĠâĢ¢": 4223,
      "estasi": 4224,
      "ĠAsia": 4225,
      "Ak": 4226,
      "engok": 4227,
      "æºĲ": 4228,
      "ÙĬÙĨ": 4229,
      "Ġpat": 4230,
      "ĠAng": 4231,
      "èĭ±": 4232,
      "uaran": 4233,
      "Ġindustri": 4234,
      "Ġprocess": 4235,
      "Ġmengalami": 4236,
      "abis": 4237,
      "TAAG": 4238,
      "ĠKL": 4239,
      "Ġlap": 4240,
      "çĮ": 4241,
      "iving": 4242,
      "lick": 4243,
      "aporan": 4244,
      "Ġform": 4245,
      "Ġright": 4246,
      "ilaian": 4247,
      "lang": 4248,
      "Ġraya": 4249,
      "aa": 4250,
      "å©ļç¤¼": 4251,
      "åĪĨäº«": 4252,
      "äºĮ": 4253,
      "ekerjaan": 4254,
      "awapan": 4255,
      "ĠComm": 4256,
      "Jumlah": 4257,
      "Nya": 4258,
      "æ¬¢": 4259,
      "Kel": 4260,
      "æĤ²": 4261,
      "Pemb": 4262,
      "ĠDI": 4263,
      "éľĢ": 4264,
      "è§Ĵèī²": 4265,
      "eluruhan": 4266,
      "åĲĳ": 4267,
      "ken": 4268,
      "à¨¾à¨Ĥ": 4269,
      "Ġselain": 4270,
      "eritakan": 4271,
      "tal": 4272,
      "Ġunit": 4273,
      "èĬ±": 4274,
      "Sh": 4275,
      "Ġown": 4276,
      "Ġrendah": 4277,
      "ĠPersekutuan": 4278,
      "ç³»": 4279,
      "102": 4280,
      "ĠPT": 4281,
      "tis": 4282,
      "sek": 4283,
      "ĠDAERAH": 4284,
      "Ġfungsi": 4285,
      "Ku": 4286,
      "hatian": 4287,
      "æĥľ": 4288,
      "ç¡": 4289,
      "ä¸Ģéĥ¨": 4290,
      "osi": 4291,
      "Ġmencapai": 4292,
      "loy": 4293,
      "eknik": 4294,
      "Ġterlalu": 4295,
      "arn": 4296,
      "BA": 4297,
      "ĠAda": 4298,
      "PRO": 4299,
      "92": 4300,
      "ĠTo": 4301,
      "mel": 4302,
      "èµı": 4303,
      "ĠOleh": 4304,
      "Ġmateri": 4305,
      "å°ıå¿ĥ": 4306,
      "ĠDep": 4307,
      "Ġcould": 4308,
      "This": 4309,
      "zen": 4310,
      "Ph": 4311,
      "dua": 4312,
      "ĠChina": 4313,
      "Ġsenti": 4314,
      "Ġhelp": 4315,
      "è½¨": 4316,
      "Ġorganis": 4317,
      "ĠDewan": 4318,
      "anggap": 4319,
      "è®¾": 4320,
      "åŃĻ": 4321,
      "å¼ı": 4322,
      "ours": 4323,
      "ç«Łæĺ¯": 4324,
      "ĠBagi": 4325,
      "ĠOk": 4326,
      "kata": 4327,
      "å¤«å¦»": 4328,
      "ungk": 4329,
      "Ġmew": 4330,
      "ĠPerdana": 4331,
      "ampir": 4332,
      "å»º": 4333,
      "ANGSAAN": 4334,
      "Ġvery": 4335,
      "eld": 4336,
      "Ġsupport": 4337,
      "Ke": 4338,
      "åŁİ": 4339,
      "Ġoper": 4340,
      "éĹ»": 4341,
      "ĠTwitter": 4342,
      "SEKOLAH": 4343,
      "ron": 4344,
      "MENT": 4345,
      "ĠMARA": 4346,
      "AGCC": 4347,
      "Ġruang": 4348,
      "ĠSer": 4349,
      "Ġà®®à®±": 4350,
      "Ġwalaupun": 4351,
      "tian": 4352,
      "En": 4353,
      "inal": 4354,
      "ĠMes": 4355,
      "å¥Ī": 4356,
      "aft": 4357,
      "For": 4358,
      "Ġstill": 4359,
      "PO": 4360,
      "Ġbantuan": 4361,
      "atuan": 4362,
      "å®£": 4363,
      "ERSEK": 4364,
      "lement": 4365,
      "Ġbeb": 4366,
      "TED": 4367,
      "459": 4368,
      "Ġlangkah": 4369,
      "ĠSeptember": 4370,
      "åıĳçİ°": 4371,
      "Ġworld": 4372,
      "åĮĸ": 4373,
      "ester": 4374,
      "tron": 4375,
      "arisan": 4376,
      "ĠON": 4377,
      "çºªå½ķ": 4378,
      "amer": 4379,
      "é£İ": 4380,
      "Ġbest": 4381,
      "kamah": 4382,
      "Ġib": 4383,
      "Ġmonth": 4384,
      "agaimanapun": 4385,
      "Ġberf": 4386,
      "ĠFeb": 4387,
      "437": 4388,
      "ĠApp": 4389,
      "Ġ60": 4390,
      "ication": 4391,
      "Ġdilaksanakan": 4392,
      "ehic": 4393,
      "è´¹": 4394,
      "ĠâĢº": 4395,
      "was": 4396,
      "Ġisteri": 4397,
      "eza": 4398,
      "ĠPRODUC": 4399,
      "ute": 4400,
      "chool": 4401,
      "Ġmarket": 4402,
      "ĠMALAYSIA": 4403,
      "é¦ĸé¡µ": 4404,
      "ĠBaru": 4405,
      "limen": 4406,
      "IED": 4407,
      "ĠCovid": 4408,
      "imat": 4409,
      "ä¹Łè¦ģ": 4410,
      "æĿĥ": 4411,
      "ipun": 4412,
      "ĠOrang": 4413,
      "ĠNasional": 4414,
      "Ġkira": 4415,
      "Ġanggota": 4416,
      "ĠAmer": 4417,
      "uit": 4418,
      "ĊĠĠĠ": 4419,
      "å¸¦çĿĢ": 4420,
      "Ġà¨ħ": 4421,
      "FAC": 4422,
      "ISH": 4423,
      "ĠEd": 4424,
      "erh": 4425,
      "ç¯ĩ": 4426,
      "ç¾İå¥³": 4427,
      "Ġbelakang": 4428,
      "ERSEKUT": 4429,
      "æ±Ĥ": 4430,
      "okasi": 4431,
      "åıį": 4432,
      "ARAT": 4433,
      "éĩı": 4434,
      "Ġtengah": 4435,
      "æ®": 4436,
      "usaha": 4437,
      "ç¦»": 4438,
      "Ġkulit": 4439,
      "åĩºè½¨": 4440,
      "ĠMod": 4441,
      "Ġef": 4442,
      "ifat": 4443,
      "Ġkelas": 4444,
      "OLY": 4445,
      "Ġpublic": 4446,
      "Ġata": 4447,
      "Ġbefore": 4448,
      "itt": 4449,
      "ikiran": 4450,
      "ĠDato": 4451,
      "ĠPh": 4452,
      "Ġplay": 4453,
      "USAN": 4454,
      "Ġmany": 4455,
      "Meng": 4456,
      "TTGC": 4457,
      "Johor": 4458,
      "ĠMATERI": 4459,
      "Ġlima": 4460,
      "els": 4461,
      "entingan": 4462,
      "æĢ»": 4463,
      "OSE": 4464,
      "aranya": 4465,
      "æĪĳæĥ³": 4466,
      "åĩī": 4467,
      "kanak": 4468,
      "Ġet": 4469,
      "Ġperingkat": 4470,
      "Ġpenduduk": 4471,
      "ĠMemb": 4472,
      "Ġput": 4473,
      "tas": 4474,
      "åĩºåİ»": 4475,
      "èĮ": 4476,
      "Ġkuat": 4477,
      "ĠSal": 4478,
      "Ġstudents": 4479,
      "Ġsebarang": 4480,
      "ĠIND": 4481,
      "eksyen": 4482,
      "å°ıä¸ī": 4483,
      "äºĨèĩªå·±": 4484,
      "æĸĩç«ł": 4485,
      "formance": 4486,
      "Ġbar": 4487,
      "Ġbagian": 4488,
      "400": 4489,
      "Ġappro": 4490,
      "LOM": 4491,
      "Ker": 4492,
      "ambut": 4493,
      "MAJLIS": 4494,
      "è¿Ļä¸ª": 4495,
      "Ada": 4496,
      "Ġbern": 4497,
      "ORS": 4498,
      "ĠSup": 4499,
      "sem": 4500,
      "Ġht": 4501,
      "ĠÙģ": 4502,
      "çŁ": 4503,
      "mar": 4504,
      "ĠBY": 4505,
      "èµŀ": 4506,
      "Ġbur": 4507,
      "å¤±è¸ª": 4508,
      "åĤ»çľ¼": 4509,
      "ERSEKUTUAN": 4510,
      "INS": 4511,
      "ãĢĤãĢĤãĢĤ": 4512,
      "æĹłå¥Ī": 4513,
      "çĶ¨æĪ·": 4514,
      "æĸ°å¨ĺ": 4515,
      "éĢļçŁ¥": 4516,
      "ĠPak": 4517,
      "ĠTun": 4518,
      "ĠBandar": 4519,
      "iaya": 4520,
      "ubung": 4521,
      "olv": 4522,
      "å®¶å©Ĩ": 4523,
      "å¼ł": 4524,
      "entr": 4525,
      "baik": 4526,
      "Ġpasukan": 4527,
      "ĠTim": 4528,
      "ĠKami": 4529,
      "iii": 4530,
      "enarkan": 4531,
      "BT": 4532,
      "enarai": 4533,
      "EST": 4534,
      "cik": 4535,
      "Ġrequir": 4536,
      "perk": 4537,
      "asy": 4538,
      "ĠApa": 4539,
      "äºĳé¡¶": 4540,
      "ĠShah": 4541,
      "Ġkenyataan": 4542,
      "KUALA": 4543,
      "UNIT": 4544,
      "ĠPengarah": 4545,
      "hari": 4546,
      "agangan": 4547,
      "ĠTrans": 4548,
      "ĠInt": 4549,
      "ĠWanita": 4550,
      "tual": 4551,
      "Ġbermula": 4552,
      "çĻ½": 4553,
      "Ġsecond": 4554,
      "Ġbeli": 4555,
      "å¸Į": 4556,
      "Ġtid": 4557,
      "Ġpendapat": 4558,
      "ĠUMNO": 4559,
      "åĿł": 4560,
      "Ab": 4561,
      "Â®": 4562,
      "èģĺ": 4563,
      "ipt": 4564,
      "Ġthen": 4565,
      "å¸½": 4566,
      "ARY": 4567,
      "æĸĻ": 4568,
      "à®³à®¤": 4569,
      "Aku": 4570,
      "Ġterbaik": 4571,
      "iver": 4572,
      "ĠDaerah": 4573,
      "Ġnampak": 4574,
      "kh": 4575,
      "ayaran": 4576,
      "USTR": 4577,
      "DNA": 4578,
      "ĠIS": 4579,
      "å¤±æľĽ": 4580,
      "TTTTC": 4581,
      "ental": 4582,
      "ĠKed": 4583,
      "Ġshe": 4584,
      "ĠKEBANGSAAN": 4585,
      "ĠTetapi": 4586,
      "ç´¢": 4587,
      "å¦Ī": 4588,
      "Ġtake": 4589,
      "Ġchar": 4590,
      "Ġkaum": 4591,
      "ised": 4592,
      "Ġlevel": 4593,
      "ï¿½ï¿½ï¿½ï¿½ï¿½": 4594,
      "Ġdisebabkan": 4595,
      "ĠBe": 4596,
      "----------------": 4597,
      "lace": 4598,
      "éĻ¤": 4599,
      "ĠRaya": 4600,
      "arj": 4601,
      "æħ": 4602,
      "ĠGr": 4603,
      "Ġlihat": 4604,
      "ĠDari": 4605,
      "ĠGo": 4606,
      "ultan": 4607,
      "Ġtepat": 4608,
      "ujuk": 4609,
      "ç¤¾": 4610,
      "Ġpenuh": 4611,
      "ĠMET": 4612,
      "TTAC": 4613,
      "TGCC": 4614,
      "tice": 4615,
      "AGAT": 4616,
      "ekod": 4617,
      "Pend": 4618,
      "Ġbecause": 4619,
      "ages": 4620,
      "ä¸įå°ıå¿ĥ": 4621,
      "çļĦäºº": 4622,
      "Ġgovernment": 4623,
      "Ġayah": 4624,
      "Ġdulu": 4625,
      "ote": 4626,
      "Ġkerj": 4627,
      "CIEN": 4628,
      "åķªåķª": 4629,
      "ĠCo": 4630,
      "Ġhttp": 4631,
      "Ġkegi": 4632,
      "å¦ĵ": 4633,
      "nounc": 4634,
      "æĤ²åī§": 4635,
      "Ġbusiness": 4636,
      "uasa": 4637,
      "æļ´éľ²": 4638,
      "åĸľ": 4639,
      "Ġkadar": 4640,
      "ied": 4641,
      "asaran": 4642,
      "761": 4643,
      "å£«": 4644,
      "æľªå©ļ": 4645,
      "Wh": 4646,
      "Ġà®ķà®Ł": 4647,
      "ĠUniversity": 4648,
      "Sek": 4649,
      "yr": 4650,
      "æĸ°éĥİ": 4651,
      "ACK": 4652,
      "iven": 4653,
      "inda": 4654,
      "Email": 4655,
      "æ¶Ī": 4656,
      "Ġperniagaan": 4657,
      "Ġcurr": 4658,
      "äº²å¯Ĩ": 4659,
      "ĠPH": 4660,
      "æł¼": 4661,
      "enuhi": 4662,
      "ĠTER": 4663,
      "Ġmenurut": 4664,
      "Gambar": 4665,
      "æĶ¶èĹı": 4666,
      "ĠHe": 4667,
      "Man": 4668,
      "Ġduring": 4669,
      "abel": 4670,
      "TTTAT": 4671,
      "ĠNovember": 4672,
      "ĠMuslim": 4673,
      "æľį": 4674,
      "UTER": 4675,
      "engkap": 4676,
      "ĠMac": 4677,
      "èº«äº¡": 4678,
      "Ġåıĳè¡¨äºİ": 4679,
      "Ġmenjadikan": 4680,
      "Ġdel": 4681,
      "ĠMACHIN": 4682,
      "ILL": 4683,
      "GCGG": 4684,
      "ason": 4685,
      "amat": 4686,
      "Ġimport": 4687,
      "ĠSAL": 4688,
      "TING": 4689,
      "å®¾å®¢": 4690,
      "pers": 4691,
      "icial": 4692,
      "andang": 4693,
      "sama": 4694,
      "Ġataupun": 4695,
      "Mer": 4696,
      "Ġik": 4697,
      "åĲĦ": 4698,
      "Ġà¨ª": 4699,
      "ç»Ħ": 4700,
      "æĬĬæĪĳ": 4701,
      "rat": 4702,
      "Ġ$": 4703,
      "wat": 4704,
      "utih": 4705,
      "itab": 4706,
      "Øº": 4707,
      "ELAK": 4708,
      "è®¡": 4709,
      "è§Ĩé¢ĳ": 4710,
      "æĬ¥å¤į": 4711,
      "èĳ": 4712,
      "tric": 4713,
      "TGAT": 4714,
      "à¨ļ": 4715,
      "è°ĥ": 4716,
      "ĠAC": 4717,
      "çº³": 4718,
      "ĠNor": 4719,
      "Ġterima": 4720,
      "å¦Ĥæŀľ": 4721,
      "è¶Ĭ": 4722,
      "Ġkesan": 4723,
      "Ġminggu": 4724,
      "ĠMajlis": 4725,
      "è¾¾äºº": 4726,
      "ĠâĢĶ": 4727,
      "äº²çĶŁ": 4728,
      "AHUN": 4729,
      "åŀ": 4730,
      "ahiran": 4731,
      "Ġkegiatan": 4732,
      "apak": 4733,
      "ä¸ŃåĽ½": 4734,
      "å¹´æĪĲ": 4735,
      "ç¨ĭ": 4736,
      "do": 4737,
      "åĨĮ": 4738,
      "inasi": 4739,
      "ĠAudit": 4740,
      "Ġplan": 4741,
      "çºªå½ķçīĩ": 4742,
      "ä¹°æĪ¿": 4743,
      "åºľ": 4744,
      "å¦ĵå¥³": 4745,
      "åĬĿ": 4746,
      "ĠÚ¤": 4747,
      "ĠÙĦ": 4748,
      "åĨĻ": 4749,
      "å¥³åŃĲå´©æºĥ": 4750,
      "æ¸¸çİ©": 4751,
      "ĠHari": 4752,
      "ÙĳÙİ": 4753,
      "éĿ¢è¯ķ": 4754,
      "è±ģ": 4755,
      "Ġmillion": 4756,
      "åıĮåıĮ": 4757,
      "Ġtengok": 4758,
      "Ġberita": 4759,
      "à®¤à®²": 4760,
      "ä¸įæĥľ": 4761,
      "Ġarah": 4762,
      "Allah": 4763,
      "unch": 4764,
      "åŃĹ": 4765,
      "enderaan": 4766,
      "æľªå©ļå¤«": 4767,
      "ective": 4768,
      "anyakan": 4769,
      "Ġtim": 4770,
      "ç»¿å¸½": 4771,
      "aksa": 4772,
      "Ġà®ħà®®": 4773,
      "Ġgam": 4774,
      "èĬĤ": 4775,
      "åĬ¡": 4776,
      "DR": 4777,
      "usahaan": 4778,
      "za": 4779,
      "Ġ2011": 4780,
      "ĠSk": 4781,
      "faat": 4782,
      "luk": 4783,
      "ona": 4784,
      "uangan": 4785,
      "itusi": 4786,
      "456": 4787,
      "äº§": 4788,
      "Ġ~": 4789,
      "ĠPejabat": 4790,
      "Ġinterest": 4791,
      "awasan": 4792,
      "åĪ«å¢": 4793,
      "elar": 4794,
      "Ġdown": 4795,
      "indak": 4796,
      "ives": 4797,
      "iron": 4798,
      "åĪ«å¢ħ": 4799,
      "åŃĻå¥³": 4800,
      "ç½ĳæĥĬ": 4801,
      "Ġà¨ľ": 4802,
      "Ġactiv": 4803,
      "åīĥ": 4804,
      "Ġawam": 4805,
      "sid": 4806,
      "Mela": 4807,
      "ainan": 4808,
      "Ġpusat": 4809,
      "ording": 4810,
      "ĠMay": 4811,
      "Ġsee": 4812,
      "ä¸ĸçķĮ": 4813,
      "Ġseles": 4814,
      "æĢ§æ¬²": 4815,
      "æĶ¶åľº": 4816,
      "ãĢĳ": 4817,
      "EAR": 4818,
      "Ġagain": 4819,
      "éªĮDNA": 4820,
      "åĪĨæīĭäºĨ": 4821,
      "ç½ĳé£ŀ": 4822,
      "Ġkeh": 4823,
      "è¿½åī§": 4824,
      "Ġincre": 4825,
      "ĠBerhormat": 4826,
      "æĭĽèģĺ": 4827,
      "è¶ħç¾İ": 4828,
      "Ġlast": 4829,
      "éĿ¢åŃĲ": 4830,
      "Ġsakit": 4831,
      "ä¼´éĥİ": 4832,
      "Ø±ÙĬ": 4833,
      "Ġcompany": 4834,
      "ĠRasulullah": 4835,
      "çł´æ¡Ī": 4836,
      "å¥³åŃĲæĹłå¥Ī": 4837,
      "IES": 4838,
      "äº²å¯Ĩçħ§": 4839,
      "Ġditetapkan": 4840,
      "ãĢĲ": 4841,
      "ces": 4842,
      "åīĥåħī": 4843,
      "æīĵèµı": 4844,
      "è±ģåĩºåİ»": 4845,
      "é¡»æĺ¯": 4846,
      "æĬĬæĪĳå½ĵ": 4847,
      "å¤´æľŁ": 4848,
      "å¸¦çĿĢå¥³åĦ¿": 4849,
      "æĭ¿ä¸įåĩº": 4850,
      "ĠREP": 4851,
      "ä»ĺå¥¹": 4852,
      "EA": 4853,
      "éĴ±ä¹Łè¦ģ": 4854,
      "æĢ§æ¬²å¼º": 4855,
      "ç¾İå¥³ç½ĳçº¢": 4856,
      "ĠAlam": 4857,
      "æĬĬæ¯Ľ": 4858,
      "çĶ·åıĭä¸įæĥľ": 4859,
      "æĬĬæĪĳå½ĵå¦ĵå¥³": 4860,
      "ä»ĺå¥¹éĴ±ä¹Łè¦ģ": 4861,
      "æĢ§æ¬²å¼ºçĶ·åıĭä¸įæĥľ": 4862,
      "ä»ĺå¥¹éĴ±ä¹Łè¦ģåķª": 4863,
      "æĢ§æ¬²å¼ºçĶ·åıĭä¸įæĥľä»ĺå¥¹éĴ±ä¹Łè¦ģåķª": 4864,
      "Ġadv": 4865,
      "å¥³åŃĲå¿ĥ": 4866,
      "æľĢçĭł": 4867,
      "æĸ°å¨ĺä¸İ": 4868,
      "ĠØ£": 4869,
      "çĭłè§Ĵèī²": 4870,
      "æĸ°å¨ĺä¸İä¼´éĥİ": 4871,
      "å®¾å®¢åĤ»çľ¼": 4872,
      "ä¸ºäºĨç²īä¸Ŀ": 4873,
      "å©ļç¤¼åħ¬å¼Ģ": 4874,
      "æĸ°éĥİæľĢçĭł": 4875,
      "ç»¿å¸½æĸ°éĥİæľĢçĭł": 4876,
      "æĸ°å¨ĺä¸İä¼´éĥİäº²å¯Ĩçħ§": 4877,
      "ç»¿å¸½æĸ°éĥİæľĢçĭłæĬ¥å¤į": 4878,
      "éĿŀäº²çĶŁ": 4879,
      "ä¸ĩæīĵèµı": 4880,
      "ç¾İå¥³ç½ĳçº¢çĽ´æĴŃ": 4881,
      "æĬĬæ¯Ľåīĥåħī": 4882,
      "ä¸ĩæīĵèµıè±ģåĩºåİ»": 4883,
      "æļ´éľ²äºĨèĩªå·±": 4884,
      "åĩīåıĪ": 4885,
      "å¤´æľŁæ¬¾": 4886,
      "çł´æ¡ĪäºĨ": 4887,
      "ä¸įå°ıå¿ĥæļ´éľ²äºĨèĩªå·±": 4888,
      "è§īå¾ĹåŃĻå¥³": 4889,
      "éĢ¼éªĮDNA": 4890,
      "åĩºè½¨è¿ĩåİ»": 4891,
      "å®¶å©Ĩè§īå¾ĹåŃĻå¥³": 4892,
      "éĿŀäº²çĶŁéĢ¼éªĮDNA": 4893,
      "å®¶å©Ĩè§īå¾ĹåŃĻå¥³éĿŀäº²çĶŁéĢ¼éªĮDNA": 4894,
      "ä¸ĩä¹°æĪ¿": 4895,
      "çĶ·åıĭæĭ¿ä¸įåĩº": 4896,
      "æĪĳæĥ³åĪĨæīĭäºĨ": 4897,
      "å¥³åŃĲå¿ĥåĩīåıĪ": 4898,
      "ä¸ĩä¹°æĪ¿å¤´æľŁæ¬¾": 4899,
      "å¥³åŃĲå¿ĥåĩīåıĪå¤±æľĽ": 4900,
      "è¿½åī§è¾¾äºº": 4901,
      "è¢«è¿½åī§è¾¾äºº": 4902,
      "æĤ¬æ¡Īçºªå½ķçīĩ": 4903,
      "ç»ĵæŀľç½ĳé£ŀ": 4904,
      "æ¯įäº²å¸¦çĿĢå¥³åĦ¿": 4905,
      "ä¸Ģéĥ¨æĤ¬æ¡Īçºªå½ķçīĩ": 4906,
      "å¹´æĪĲæĤ¬æ¡Ī": 4907,
      "è¢«è¿½åī§è¾¾äººçł´æ¡ĪäºĨ": 4908,
      "ç»ĵæŀľç½ĳé£ŀä¸Ģéĥ¨æĤ¬æ¡Īçºªå½ķçīĩ": 4909,
      "æ¯įäº²å¸¦çĿĢå¥³åĦ¿å¤±è¸ª": 4910,
      "uali": 4911,
      "ä¾Ľ": 4912,
      "Ġben": 4913,
      "Ġprovid": 4914,
      "Ġ1848": 4915,
      "ASS": 4916,
      "ekatan": 4917,
      "Ġkalangan": 4918,
      "åĲĹ": 4919,
      "Ġpint": 4920,
      "ray": 4921,
      "ä¸Ģç¯ĩ": 4922,
      "å®ĺ": 4923,
      "ĠProf": 4924,
      "adanya": 4925,
      "Ġjauh": 4926,
      "æĺ¯å¥³åĦ¿": 4927,
      "Ġsame": 4928,
      "gunaan": 4929,
      "inang": 4930,
      "Ġmust": 4931,
      "å¿«æ´»": 4932,
      "åĿłä¸ĭ": 4933,
      "ĠJALAN": 4934,
      "Ġnor": 4935,
      "ĠSi": 4936,
      "ĠSingap": 4937,
      "à¨Ł": 4938,
      "åĩł": 4939,
      "å¥³åŃĲæİ¥": 4940,
      "çĲĥ": 4941,
      "ä¸ºèĢģæĿ¿": 4942,
      "å¯¹åĳ³": 4943,
      "Ġpengetahuan": 4944,
      "Ġ2010": 4945,
      "Ġshall": 4946,
      "æĤ²åī§æĶ¶åľº": 4947,
      "æĺ¯å¥³åĦ¿èº«": 4948,
      "AGGG": 4949,
      "ody": 4950,
      "äºĳé¡¶æ¸¸çİ©": 4951,
      "Øµ": 4952,
      "åĿłä¸ĭèº«äº¡": 4953,
      "æĦ¿ä½ı": 4954,
      "åħ¬åı¸æĭĽèģĺ": 4955,
      "éĿ¢è¯ķéĢļçŁ¥": 4956,
      "æĥĬçŁ¥": 4957,
      "å¾ģå°ıä¸ī": 4958,
      "é¡»æĺ¯å¤Ħ": 4959,
      "å¹´åķªåķª": 4960,
      "çĶŁæ´»å¯¹åĳ³": 4961,
      "éħĴåºĹåĿłä¸ĭèº«äº¡": 4962,
      "ç«Łæĺ¯ä¸ºèĢģæĿ¿": 4963,
      "å¤«å¦»äºĳé¡¶æ¸¸çİ©": 4964,
      "å¥³åŃĲå´©æºĥæĥĬçŁ¥": 4965,
      "åıĮåıĮéħĴåºĹåĿłä¸ĭèº«äº¡": 4966,
      "æľªå©ļå¤«æĺ¯å¥³åĦ¿èº«": 4967,
      "åĪ«å¢ħå¿«æ´»": 4968,
      "è¶ħç¾İæ»¡": 4969,
      "å¥³åŃĲæİ¥éĿ¢è¯ķéĢļçŁ¥": 4970,
      "æĦ¿ä½ıåĪ«å¢ħå¿«æ´»": 4971,
      "åħ¬åı¸æĭĽèģĺç«Łæĺ¯ä¸ºèĢģæĿ¿": 4972,
      "å¹´åķªåķªçĶŁæ´»å¯¹åĳ³": 4973,
      "å¤«å¦»äºĳé¡¶æ¸¸çİ©æĤ²åī§æĶ¶åľº": 4974,
      "åħ¬åı¸æĭĽèģĺç«Łæĺ¯ä¸ºèĢģæĿ¿å¾ģå°ıä¸ī": 4975,
      "å¹´åķªåķªçĶŁæ´»å¯¹åĳ³è¶ħç¾İæ»¡": 4976,
      "é¾": 4977,
      "ines": 4978,
      "Ġvehic": 4979,
      "Ġsurat": 4980,
      "Ġakibat": 4981,
      "Ġteknologi": 4982,
      "ĠHaji": 4983,
      "éĿ¢åŃĲä¹¦": 4984,
      "alak": 4985,
      "MAN": 4986,
      "Ġketer": 4987,
      "ĠĊĊ": 4988,
      "Ġpasaran": 4989,
      "ced": 4990,
      "abil": 4991,
      "å·²ç»ı": 4992,
      "insip": 4993,
      "èĪª": 4994,
      "okong": 4995,
      "æĹ©": 4996,
      "Ġbab": 4997,
      "untukan": 4998,
      "Ġmenjalankan": 4999,
      "ĠSej": 5000,
      "ĠPembangunan": 5001,
      "å®ĥ": 5002,
      "ä»¤åĲī": 5003,
      "åħĭ": 5004,
      "imbalan": 5005,
      "ementara": 5006,
      "unyi": 5007,
      "Ġmelaksanakan": 5008,
      "æİ¨": 5009,
      "Ġkeku": 5010,
      "Dan": 5011,
      "ĠØ¹": 5012,
      "Ġsemp": 5013,
      "bor": 5014,
      "eria": 5015,
      "enal": 5016,
      "Ġusing": 5017,
      "AMAN": 5018,
      "ĠAut": 5019,
      "mati": 5020,
      "Ġsentiasa": 5021,
      "101": 5022,
      "etik": 5023,
      "Ġvis": 5024,
      "ELAN": 5025,
      "Ġà®µà®°": 5026,
      "App": 5027,
      "ĠBuk": 5028,
      "Ġeach": 5029,
      "ĠPerkhidmatan": 5030,
      "ures": 5031,
      "ç½ĳåıĭ": 5032,
      "Ġsepanjang": 5033,
      "mak": 5034,
      "Ġnumber": 5035,
      "âĤ¬": 5036,
      "site": 5037,
      "à®±à®¤": 5038,
      "rid": 5039,
      "éĢł": 5040,
      "Ġlead": 5041,
      "Mas": 5042,
      "Menurut": 5043,
      "Ġadministr": 5044,
      "ĠSY": 5045,
      "AACG": 5046,
      "Ġkeperluan": 5047,
      "æ¸ħ": 5048,
      "Ġthose": 5049,
      "ampuan": 5050,
      "OC": 5051,
      "Ġsering": 5052,
      "ajaran": 5053,
      "TM": 5054,
      "å§ĭ": 5055,
      "Ġkont": 5056,
      "awarkan": 5057,
      "Ġ08": 5058,
      "set": 5059,
      "ĠBerhad": 5060,
      "Pem": 5061,
      "æ¢": 5062,
      "ness": 5063,
      "Ġkesihatan": 5064,
      "Ġavailable": 5065,
      "inkan": 5066,
      "Ġwa": 5067,
      "ene": 5068,
      "Tidak": 5069,
      "Ġberbagai": 5070,
      "IPLOM": 5071,
      "uari": 5072,
      "iab": 5073,
      "Ġ05": 5074,
      "Ġsoalan": 5075,
      "Ġlaw": 5076,
      "ĠBo": 5077,
      "AGGC": 5078,
      "ases": 5079,
      "AGCG": 5080,
      "til": 5081,
      "indow": 5082,
      "idik": 5083,
      "æł¡": 5084,
      "Ġelek": 5085,
      "ĠSekolah": 5086,
      "ĠPIL": 5087,
      "EH": 5088,
      "ĠBukan": 5089,
      "ser": 5090,
      "ĠChord": 5091,
      "ubuh": 5092,
      "Ġduduk": 5093,
      "otel": 5094,
      "Ġkumpulan": 5095,
      "EE": 5096,
      "Ġmesti": 5097,
      "Ġcontr": 5098,
      "è½¬": 5099,
      "KR": 5100,
      "ÙĪØ§": 5101,
      "ĠOIL": 5102,
      "embang": 5103,
      "ĠRah": 5104,
      "Ġ35": 5105,
      "Ġconc": 5106,
      "åĿĽ": 5107,
      "Ġamat": 5108,
      "Ġlanjut": 5109,
      "Ġpeserta": 5110,
      "Ġmengand": 5111,
      "IPLOMA": 5112,
      "ĠTAN": 5113,
      "buran": 5114,
      "angsaan": 5115,
      "à®Łà®®": 5116,
      "åĽ¢": 5117,
      "å°Ķ": 5118,
      "ĠCAR": 5119,
      "åħĥ": 5120,
      "uluh": 5121,
      "Ġequ": 5122,
      "lor": 5123,
      "eluarga": 5124,
      "ĠKewangan": 5125,
      "MP": 5126,
      "aging": 5127,
      "å¿ħ": 5128,
      "aju": 5129,
      "bi": 5130,
      "sy": 5131,
      "EI": 5132,
      "AKAN": 5133,
      "arning": 5134,
      "Ġthree": 5135,
      "è¯»": 5136,
      "milik": 5137,
      "Ġagak": 5138,
      "Ġresult": 5139,
      "alth": 5140,
      "ĠWhat": 5141,
      "ongs": 5142,
      "ERY": 5143,
      "æĥĬè§ī": 5144,
      "Ġkeseluruhan": 5145,
      "Ġsana": 5146,
      "bers": 5147,
      "SAR": 5148,
      "Ġundang": 5149,
      "Ġwant": 5150,
      "à®ķà®®": 5151,
      "light": 5152,
      "Ġboth": 5153,
      "Ini": 5154,
      "Ġdet": 5155,
      "ĠGR": 5156,
      "Ġsiswa": 5157,
      "unggu": 5158,
      "aruh": 5159,
      "ession": 5160,
      "çº¿": 5161,
      "è®¸": 5162,
      "ĠDR": 5163,
      "ĠItu": 5164,
      "Ġbil": 5165,
      "ĠTe": 5166,
      "à¨ľ": 5167,
      "ĠLat": 5168,
      "abangsa": 5169,
      "Ġmangsa": 5170,
      "æ³¨åĨĮ": 5171,
      "TTCG": 5172,
      "èģĬ": 5173,
      "Ġaj": 5174,
      "ç«ĭ": 5175,
      "Ġalat": 5176,
      "ipta": 5177,
      "Ġminyak": 5178,
      "æĶ¿åºľ": 5179,
      "Ġcustom": 5180,
      "±ä¹Ĳ": 5181,
      "Ġterdiri": 5182,
      "æł¹": 5183,
      "èħ": 5184,
      "Ġ;": 5185,
      "Ġmengetahui": 5186,
      "dib": 5187,
      "land": 5188,
      "ç§ĳ": 5189,
      "Ġmenerusi": 5190,
      "Ġmenyer": 5191,
      "LIC": 5192,
      "Ġro": 5193,
      "ĠSAW": 5194,
      "åĬŀ": 5195,
      "ĠTelegram": 5196,
      "Ġbakal": 5197,
      "éŁ³": 5198,
      "IX": 5199,
      "ç®¡": 5200,
      "TACC": 5201,
      "Ġtulis": 5202,
      "uarat": 5203,
      "egi": 5204,
      "Ġpenyel": 5205,
      "âĢĿ,": 5206,
      "ĠCONS": 5207,
      "à®°à®ļ": 5208,
      "å®Įåħ¨æ²¡": 5209,
      "GB": 5210,
      "Ġhit": 5211,
      "omen": 5212,
      "endapat": 5213,
      "Ġpartic": 5214,
      "åĢĻ": 5215,
      "Ġmurid": 5216,
      "Ġdoes": 5217,
      "isti": 5218,
      "ahaya": 5219,
      "Ġpekerja": 5220,
      "Ġdahulu": 5221,
      "Ġhadapan": 5222,
      "ross": 5223,
      "que": 5224,
      "å±ķ": 5225,
      "ope": 5226,
      "Ġtugas": 5227,
      "Ġkarya": 5228,
      "yuarat": 5229,
      "againya": 5230,
      "ĠHow": 5231,
      "AIL": 5232,
      "Ġberbeza": 5233,
      "bar": 5234,
      "AMB": 5235,
      "Ġred": 5236,
      "Ġconf": 5237,
      "åĳ½": 5238,
      "Ġpeluang": 5239,
      "Ġkanak": 5240,
      "Tr": 5241,
      "OW": 5242,
      "Ġdiambil": 5243,
      "ĠGuru": 5244,
      "anggan": 5245,
      "ÙĪÙĨ": 5246,
      "Ġjar": 5247,
      "Ġperatus": 5248,
      "åħļ": 5249,
      "æĸ°çĶ·åıĭ": 5250,
      "Ġ1437": 5251,
      "inggalkan": 5252,
      "han": 5253,
      "Ġpelaksanaan": 5254,
      "ä¸įçŁ¥æĺ¯åĲ¦": 5255,
      "è¯¥ç»§ç»Ń": 5256,
      "Ø±Ø§": 5257,
      "å±±": 5258,
      "We": 5259,
      "ĠRe": 5260,
      "Ġgroup": 5261,
      "TTCC": 5262,
      "ombor": 5263,
      "iling": 5264,
      "å¿«åĪĨ": 5265,
      "æĢ¥åĬĿ": 5266,
      "å¥¹ä¸įçŁ¥æĺ¯åĲ¦": 5267,
      "å¥³åŃĲæĥĬè§ī": 5268,
      "ç½ĳæĢ¥åĬĿ": 5269,
      "å®Įåħ¨æ²¡æľĭåıĭ": 5270,
      "è¯¥ç»§ç»Ńäº¤å¾Ģ": 5271,
      "å¥¹ä¸įçŁ¥æĺ¯åĲ¦è¯¥ç»§ç»Ńäº¤å¾Ģ": 5272,
      "å¥³åŃĲæĥĬè§īæĸ°çĶ·åıĭ": 5273,
      "Ġkelompok": 5274,
      "åħį": 5275,
      "Ġmemerlukan": 5276,
      "Ġmengur": 5277,
      "guna": 5278,
      "æ²Ļ": 5279,
      ",<": 5280,
      "antik": 5281,
      "Ġ1516": 5282,
      "umahan": 5283,
      "adu": 5284,
      "ĠAkta": 5285,
      "ather": 5286,
      "Ġkejadian": 5287,
      "Ġ1610": 5288,
      "Ġ1710": 5289,
      "ĠUt": 5290,
      "é¤": 5291,
      "MAD": 5292,
      "Ġ1802": 5293,
      "åı¯èĥ½": 5294,
      "Ġlaman": 5295,
      "ä¾¿": 5296,
      "Ġec": 5297,
      "Ġà®ĩà®¨": 5298,
      "jid": 5299,
      "Ġ1269": 5300,
      "çĽ¸åħ³": 5301,
      "Ġsesi": 5302,
      "Ġhampir": 5303,
      "æŁ¥çľĭ": 5304,
      "ential": 5305,
      "ÙĥÙĨ": 5306,
      "ĠSUB": 5307,
      "Ġkorang": 5308,
      "Ġpoint": 5309,
      "ĠPengurusan": 5310,
      "Ġ2257": 5311,
      "Ġmembaca": 5312,
      "Ġdikatakan": 5313,
      "intang": 5314,
      "Ġ2459": 5315,
      "Ġ2761": 5316,
      "OP": 5317,
      "ĠMOH": 5318,
      "xy": 5319,
      "Ġcall": 5320,
      "åĢĴ": 5321,
      "Ġpolis": 5322,
      "Ġsegi": 5323,
      "Ġnanti": 5324,
      "andungan": 5325,
      "APAN": 5326,
      "Ġfamil": 5327,
      "Ġsa": 5328,
      "Ġgolongan": 5329,
      "orpor": 5330,
      "hadapi": 5331,
      "æģ¯": 5332,
      "alanan": 5333,
      "Ġny": 5334,
      "Ġditerima": 5335,
      "Ġà¨®": 5336,
      "Tan": 5337,
      "akala": 5338,
      "okongan": 5339,
      "Ġcakap": 5340,
      "Ú¬": 5341,
      "sible": 5342,
      "ONES": 5343,
      "âĢĶâĢĶ": 5344,
      "Ġ2009": 5345,
      "Ġawak": 5346,
      "Sarawak": 5347,
      "å¨±ä¹Ĳ": 5348,
      "Ġhand": 5349,
      "gen": 5350,
      "usun": 5351,
      "TAGC": 5352,
      "ä¸Ķ": 5353,
      "ĠIbnu": 5354,
      "ĠParlimen": 5355,
      "hare": 5356,
      "Ġjawab": 5357,
      ",,,,,,,,,,,,,,,,,,,,,,,,,,,,,,,,,,,,,,,,,,,,,,,,,,,,,,,,,,,,,,,,,,,,,,,,,,,,,,,,,,,,,,,,,,,,,,,,,,,,,,,,,,,,,,,,,,,,,,,,,,,,,,,,": 5358,
      "Ġmeningkat": 5359,
      "Ġ(@": 5360,
      "Ġread": 5361,
      "Ġmuch": 5362,
      "Ġpengalaman": 5363,
      "ĠKER": 5364,
      "sifat": 5365,
      "Ġcontin": 5366,
      "uji": 5367,
      "PORT": 5368,
      "ukul": 5369,
      "Ġfaktor": 5370,
      "ä½¿çĶ¨": 5371,
      "è¿ª": 5372,
      "AGAG": 5373,
      "Ġreal": 5374,
      "Ġvers": 5375,
      "Ġpenyakit": 5376,
      "Ġaspek": 5377,
      "ĠMelaka": 5378,
      "Ġtidur": 5379,
      "ASA": 5380,
      "ä¼Ĺ": 5381,
      "Ġ32": 5382,
      "Ġpermohonan": 5383,
      "Ġpositif": 5384,
      "Ã¢": 5385,
      "à¨¿à©±": 5386,
      "Null": 5387,
      "æķ´": 5388,
      "ture": 5389,
      "ĠArab": 5390,
      "ç»Ł": 5391,
      "ampaikan": 5392,
      "ksi": 5393,
      "atr": 5394,
      "Ġpengurusan": 5395,
      "Ġtiba": 5396,
      "unai": 5397,
      "ĠPusat": 5398,
      "play": 5399,
      "Ġfi": 5400,
      "aining": 5401,
      "600": 5402,
      "Ġtest": 5403,
      "ÙĢ": 5404,
      "ĠPembantu": 5405,
      "aq": 5406,
      "alk": 5407,
      "ç²¾": 5408,
      "RAM": 5409,
      "uary": 5410,
      "unjuk": 5411,
      "come": 5412,
      "Ġneg": 5413,
      "Ġdon": 5414,
      "åł": 5415,
      "Ġprom": 5416,
      "ç§°": 5417,
      "inaan": 5418,
      "Ġpengh": 5419,
      "ĠGL": 5420,
      "Ġstat": 5421,
      "Ġkaki": 5422,
      "ukakan": 5423,
      "ĠRE": 5424,
      "Ġmemilih": 5425,
      "utang": 5426,
      "urangan": 5427,
      "Ġdevelopment": 5428,
      "à¥": 5429,
      "Ġlem": 5430,
      "ĠPinang": 5431,
      "Ġlainnya": 5432,
      "Ġelec": 5433,
      "ENGG": 5434,
      "å·¥ä½ľ": 5435,
      "ĠInternational": 5436,
      "lack": 5437,
      "Ġallow": 5438,
      "ouse": 5439,
      "ampai": 5440,
      "åįģ": 5441,
      "Ah": 5442,
      "è¾¹": 5443,
      "ĠTah": 5444,
      "wah": 5445,
      "Ġtenaga": 5446,
      "é©¬æĿ¥": 5447,
      "elesaikan": 5448,
      "Kedah": 5449,
      "ĠSTR": 5450,
      "osa": 5451,
      "Ġfollowing": 5452,
      "UBBER": 5453,
      "âĪ": 5454,
      "mm": 5455,
      "ayu": 5456,
      "Ġterlibat": 5457,
      "ĠIndustr": 5458,
      "ĠPRODUCTS": 5459,
      ">,": 5460,
      "UDA": 5461,
      "Ġpenulis": 5462,
      "ATAC": 5463,
      "à¨Ĺ": 5464,
      "ĊĠĠĠĠ": 5465,
      "Ġtotal": 5466,
      "æĹ¶éĹ´": 5467,
      "é¦Ļ": 5468,
      "alang": 5469,
      "Ġng": 5470,
      "Ġdirinya": 5471,
      "à¨µ": 5472,
      "alys": 5473,
      "Ġà¨ĩ": 5474,
      "Â¿": 5475,
      "Ġkeselamatan": 5476,
      "amera": 5477,
      "action": 5478,
      "Or": 5479,
      "ument": 5480,
      "ĠTuhan": 5481,
      "Ġtinggal": 5482,
      "Ġperhatian": 5483,
      "KED": 5484,
      "Sed": 5485,
      "ç¾İåĽ½": 5486,
      "ĠNEGERI": 5487,
      "ĠRumah": 5488,
      "Ġpegawai": 5489,
      "ĠSPEC": 5490,
      "æĸ°éĹ»": 5491,
      "IDES": 5492,
      "yl": 5493,
      "éĹ®é¢ĺ": 5494,
      "ĠAhli": 5495,
      "èİ·": 5496,
      "ATCG": 5497,
      "sc": 5498,
      "è®ºåĿĽ": 5499,
      ".)": 5500,
      "à®ĩ": 5501,
      "ĠKota": 5502,
      "injaman": 5503,
      "ĠSAR": 5504,
      "ĠIf": 5505,
      "Ġincluding": 5506,
      "Ġteg": 5507,
      "ursus": 5508,
      "Ġkalian": 5509,
      "ĠINCLUDING": 5510,
      "OV": 5511,
      "Ġberat": 5512,
      "Ġstudy": 5513,
      "åħĪ": 5514,
      "Ġmuka": 5515,
      "LS": 5516,
      "ogle": 5517,
      "é¤Ĳ": 5518,
      "Ġrakan": 5519,
      "åĬ©": 5520,
      "Ġped": 5521,
      "ĠUniversiti": 5522,
      "gerak": 5523,
      "ĠâĪ": 5524,
      "TTGG": 5525,
      "baru": 5526,
      "ems": 5527,
      "inar": 5528,
      "Ġlist": 5529,
      "uality": 5530,
      "çª": 5531,
      "ingkungan": 5532,
      "orld": 5533,
      "Ġcalon": 5534,
      "ĠOf": 5535,
      "æĢģ": 5536,
      "It": 5537,
      "Ġsens": 5538,
      "UA": 5539,
      "ĠCOVID": 5540,
      "'t": 5541,
      "Ġcle": 5542,
      "åıĳå¸ĥ": 5543,
      "ealth": 5544,
      "Ġdiperlukan": 5545,
      "å¾·": 5546,
      "à¥¤": 5547,
      "ecial": 5548,
      "EMP": 5549,
      "Ġsiapa": 5550,
      "Ġinvest": 5551,
      "è·Ł": 5552,
      "ĠMy": 5553,
      "Ġà®īà®³": 5554,
      "TCTC": 5555,
      "ends": 5556,
      "Perak": 5557,
      "Ġsebagainya": 5558,
      "elanj": 5559,
      "Ġplat": 5560,
      "Jika": 5561,
      "Ġpekerjaan": 5562,
      "ç¡®": 5563,
      "irasi": 5564,
      "Ġ<": 5565,
      "Ġturun": 5566,
      "Ġnon": 5567,
      "Lelaki": 5568,
      "abung": 5569,
      "æİ§": 5570,
      "CIAL": 5571,
      "Ġchange": 5572,
      "Ġsuc": 5573,
      "tics": 5574,
      "UJ": 5575,
      "porkan": 5576,
      "Ġ34": 5577,
      "rahim": 5578,
      "olak": 5579,
      "ĠReport": 5580,
      "ki": 5581,
      "IFIED": 5582,
      "ann": 5583,
      "Ġ{": 5584,
      "PA": 5585,
      "mereka": 5586,
      "Ġbilik": 5587,
      "Ġrece": 5588,
      "ource": 5589,
      "KA": 5590,
      "å¤§å®¶": 5591,
      "è¿ŀ": 5592,
      "ĠBeliau": 5593,
      "Ġcm": 5594,
      "æŃĮ": 5595,
      "Ġresearch": 5596,
      "agn": 5597,
      "mah": 5598,
      "Ġhuj": 5599,
      "Ġref": 5600,
      "Ġmuda": 5601,
      "ĠMenurut": 5602,
      "',": 5603,
      "789": 5604,
      "ĠCar": 5605,
      "æ¨": 5606,
      "AWAK": 5607,
      "ior": 5608,
      "viron": 5609,
      "reak": 5610,
      "æĳĺ": 5611,
      "Ġsemalam": 5612,
      "TAR": 5613,
      "ukaan": 5614,
      "ARE": 5615,
      "ĠDunia": 5616,
      "ubatan": 5617,
      "ĠTHERE": 5618,
      "ella": 5619,
      "Ġbudaya": 5620,
      "LAH": 5621,
      "ulasi": 5622,
      "erikan": 5623,
      "illah": 5624,
      "inter": 5625,
      "UG": 5626,
      "andu": 5627,
      "é¸": 5628,
      "Ġpemain": 5629,
      "etizen": 5630,
      "enter": 5631,
      "KP": 5632,
      "DIPLOMA": 5633,
      "ĠNur": 5634,
      "ĠFIB": 5635,
      "Ġbangsa": 5636,
      "åĺ": 5637,
      "çĶ·åŃĲ": 5638,
      "lom": 5639,
      "MA": 5640,
      "ĠAli": 5641,
      "Ġsekiranya": 5642,
      "Ġwithin": 5643,
      "MAL": 5644,
      "olehkan": 5645,
      "ï¼ļâĢľ": 5646,
      "VE": 5647,
      "udahan": 5648,
      "å±Ģ": 5649,
      "ida": 5650,
      "Ġwarna": 5651,
      "sebagai": 5652,
      "Ġketiga": 5653,
      ",,,": 5654,
      "èĽ": 5655,
      "à®Łà®°": 5656,
      "ĠAbdullah": 5657,
      "umkan": 5658,
      "ç¿": 5659,
      "Ġperkembangan": 5660,
      "ĠPost": 5661,
      "andingan": 5662,
      "laim": 5663,
      "ÙĦÙĬ": 5664,
      "ĠSed": 5665,
      "ancing": 5666,
      "æĽ¾": 5667,
      "ema": 5668,
      "Ġatt": 5669,
      "DA": 5670,
      "Ġbapa": 5671,
      "åįĬ": 5672,
      "Ġnext": 5673,
      "Ġcr": 5674,
      "Ġisi": 5675,
      "æīĢä»¥": 5676,
      "Ġwarga": 5677,
      "çľŁçļĦ": 5678,
      "ĠBahagian": 5679,
      "ically": 5680,
      "ĠPerak": 5681,
      "URS": 5682,
      "Â²": 5683,
      "Â±": 5684,
      "ulat": 5685,
      "ĠME": 5686,
      "menc": 5687,
      "gov": 5688,
      "emat": 5689,
      "ĠLE": 5690,
      "ĉčĠÂł": 5691,
      "dik": 5692,
      "ĠMei": 5693,
      "åı·": 5694,
      "IKAN": 5695,
      "è¿ĺæĺ¯": 5696,
      "ç¥¨": 5697,
      "Ġdisediakan": 5698,
      "Ġmaksud": 5699,
      "Ġhead": 5700,
      "Ġmo": 5701,
      "çĪĨ": 5702,
      "åĨ³": 5703,
      "ĠTAHUN": 5704,
      "go": 5705,
      "unity": 5706,
      "çĪ¶": 5707,
      "ayah": 5708,
      "Ġkonsep": 5709,
      "Tel": 5710,
      "TGGC": 5711,
      "ingat": 5712,
      "ewa": 5713,
      "Ġexperience": 5714,
      "è°Ī": 5715,
      "Ġ01": 5716,
      "ĠBin": 5717,
      "ĠIsmail": 5718,
      "org": 5719,
      "ills": 5720,
      "Ġsektor": 5721,
      "éĻ¢": 5722,
      "ici": 5723,
      "ĠDisember": 5724,
      "caya": 5725,
      "Ġmenghasilkan": 5726,
      "uction": 5727,
      "Comp": 5728,
      "ENTS": 5729,
      "JANA": 5730,
      "Ġmemahami": 5731,
      "Ġ2008": 5732,
      "ged": 5733,
      "çķĻè¨Ģ": 5734,
      "Ġadanya": 5735,
      "Ġmilik": 5736,
      "gerakan": 5737,
      "aiz": 5738,
      "Ġcepat": 5739,
      "åį¡": 5740,
      "è¿Ļæł·": 5741,
      "Ġpendapatan": 5742,
      "ï¼Ľ": 5743,
      "Ġoperasi": 5744,
      "Ġglobal": 5745,
      "Ġfeatur": 5746,
      "çģ«": 5747,
      "ution": 5748,
      "Ġmaupun": 5749,
      "ĠPIN": 5750,
      "Ġprem": 5751,
      "Ø®": 5752,
      "Ġupd": 5753,
      "ECH": 5754,
      "Ġ33": 5755,
      "ĠStud": 5756,
      "Ġmanakala": 5757,
      "oss": 5758,
      "ural": 5759,
      "ĠPulau": 5760,
      "ECTR": 5761,
      "ĠBAH": 5762,
      "illus": 5763,
      "ĠImage": 5764,
      "Ġsejarah": 5765,
      "ĠTinggi": 5766,
      "arac": 5767,
      "Ġperiod": 5768,
      "ayat": 5769,
      "TTTTG": 5770,
      "ĠKon": 5771,
      "à®¯à®¤": 5772,
      "ĠJanuari": 5773,
      "TGTC": 5774,
      "åŁº": 5775,
      "å¼Ģå§ĭ": 5776,
      "Ġtempatan": 5777,
      "round": 5778,
      "YA": 5779,
      "Ġprice": 5780,
      "otal": 5781,
      "Ġvalue": 5782,
      "Dr": 5783,
      "Ġstandard": 5784,
      "Ġà®Ł": 5785,
      "ĠÙ": 5786,
      "Ġpenelitian": 5787,
      "Ġsikap": 5788,
      "Ġkepala": 5789,
      "ĠSen": 5790,
      "Ġthink": 5791,
      "!!": 5792,
      "èĩ´": 5793,
      "Ġdifferent": 5794,
      "ĠMATERIALS": 5795,
      "åħ°": 5796,
      "Ġikan": 5797,
      "ĠÙĲ": 5798,
      "Ġmati": 5799,
      "less": 5800,
      "Ġcre": 5801,
      "NNNNNNNN": 5802,
      "ĠKerja": 5803,
      "pens": 5804,
      "]:": 5805,
      "Ġproject": 5806,
      "LAN": 5807,
      "unga": 5808,
      "å¾®": 5809,
      "Ġmenyediakan": 5810,
      "Selain": 5811,
      "ĠSyarikat": 5812,
      "ĠSistem": 5813,
      "Ac": 5814,
      "eder": 5815,
      "ÙİÙĳ": 5816,
      "encana": 5817,
      "Kes": 5818,
      "ĠIng": 5819,
      "raph": 5820,
      "artment": 5821,
      "ĠNC": 5822,
      "Ġgu": 5823,
      "urther": 5824,
      "éĿŀå¸¸": 5825,
      "Ġdarah": 5826,
      "Ġmulai": 5827,
      "uncul": 5828,
      "ĠAnak": 5829,
      "Ġaround": 5830,
      "Pers": 5831,
      "ĠBAS": 5832,
      "ĠPolis": 5833,
      "ungguhnya": 5834,
      "ĠDec": 5835,
      "Ġujian": 5836,
      "ĠRakyat": 5837,
      "ahanan": 5838,
      "Ġtoo": 5839,
      "åģ¥": 5840,
      "åĪĻ": 5841,
      "Ġsifat": 5842,
      "Ġprot": 5843,
      "åĲ§": 5844,
      "Ġ36": 5845,
      "bur": 5846,
      "asanya": 5847,
      "æ¹": 5848,
      "Ġsebagaimana": 5849,
      "Ġprev": 5850,
      "ĠRUBBER": 5851,
      "Ġwater": 5852,
      "umpa": 5853,
      "Ġambil": 5854,
      "peny": 5855,
      "éĽĨ": 5856,
      "ĠMIN": 5857,
      "VES": 5858,
      "åª": 5859,
      "ĠMUDA": 5860,
      "éĤĢ": 5861,
      "atian": 5862,
      "ĠBorong": 5863,
      "à®¤à®¤": 5864,
      "æĬĢ": 5865,
      "Str": 5866,
      "Ġgag": 5867,
      "ĠSela": 5868,
      "ihkan": 5869,
      "oga": 5870,
      "angkap": 5871,
      "Ġvir": 5872,
      "ips": 5873,
      "agu": 5874,
      "Ġbased": 5875,
      "Ġseks": 5876,
      "ourn": 5877,
      "trak": 5878,
      "EKSI": 5879,
      "æĿ¥æºĲ": 5880,
      "åıĤ": 5881,
      "Ġhim": 5882,
      "BAY": 5883,
      "ret": 5884,
      "åį³": 5885,
      "arti": 5886,
      "vironment": 5887,
      "gy": 5888,
      "mes": 5889,
      "ulum": 5890,
      "Ġservices": 5891,
      "ariah": 5892,
      "Ġkisah": 5893,
      "ĠKP": 5894,
      "nd": 5895,
      "Ġpandangan": 5896,
      "acillus": 5897,
      "IUM": 5898,
      "aduan": 5899,
      "Ġfind": 5900,
      "ABAH": 5901,
      "Ġsyarat": 5902,
      "ared": 5903,
      "Ġkela": 5904,
      "crib": 5905,
      "Ġpermainan": 5906,
      "con": 5907,
      "Ġteks": 5908,
      "ç½ĳæ°ĳ": 5909,
      "ĠSebab": 5910,
      "aving": 5911,
      "TGAC": 5912,
      "Business": 5913,
      "formasi": 5914,
      "ĠHam": 5915,
      "åŃ©åŃĲ": 5916,
      "ĠSK": 5917,
      "ked": 5918,
      "Ġ200": 5919,
      "Ġear": 5920,
      "Ġsaf": 5921,
      "Ġasas": 5922,
      "çĸ«": 5923,
      "gos": 5924,
      "esu": 5925,
      "åĪļ": 5926,
      "åįĹ": 5927,
      "IZ": 5928,
      "Ġ70": 5929,
      "ĠFRO": 5930,
      "alasan": 5931,
      "akwa": 5932,
      "Ġ::": 5933,
      "Ġcost": 5934,
      "è®¶": 5935,
      "120": 5936,
      "Ġjen": 5937,
      "å¾Īå¤ļ": 5938,
      "Ġà®°": 5939,
      "æ²¹": 5940,
      "Ġmed": 5941,
      "emas": 5942,
      "åĬŁ": 5943,
      "ĠKomp": 5944,
      "é²": 5945,
      "ĠFree": 5946,
      "hatikan": 5947,
      "ĠPresiden": 5948,
      "Ġko": 5949,
      "lex": 5950,
      "æĥĬè®¶": 5951,
      "Ġlakukan": 5952,
      "Ġtanda": 5953,
      ":\",": 5954,
      "yam": 5955,
      "ĠBi": 5956,
      "elasan": 5957,
      "ĠâĨĴ": 5958,
      "å®Ĺ": 5959,
      "Ġasing": 5960,
      "Ġharta": 5961,
      "à®ķà®¤": 5962,
      "à¨£": 5963,
      "å¦¹": 5964,
      "ĠOff": 5965,
      "negara": 5966,
      "çĶŁæ°Ķ": 5967,
      "Ġbuk": 5968,
      "Ġï¼Ī": 5969,
      "ĠPerb": 5970,
      "impan": 5971,
      "éļ¾è¿ĩ": 5972,
      "Ġberjalan": 5973,
      "aedah": 5974,
      "ONE": 5975,
      "Ġsud": 5976,
      "ĠGroup": 5977,
      "æģĲ": 5978,
      "ĠPILAH": 5979,
      "Ġmenjelaskan": 5980,
      "è¯ī": 5981,
      "ĠJakarta": 5982,
      "urunan": 5983,
      "anjian": 5984,
      "?âĢĿ": 5985,
      "Like": 5986,
      "103": 5987,
      "aftaran": 5988,
      "alatan": 5989,
      "aparkan": 5990,
      "tersebut": 5991,
      "Ġfinancial": 5992,
      "Ġseter": 5993,
      "ledge": 5994,
      "ITY": 5995,
      "åºŃ": 5996,
      "EAN": 5997,
      "ĠSUR": 5998,
      "é»Ħ": 5999,
      "ATGC": 6000,
      "entara": 6001,
      "Ġnas": 6002,
      "OLOG": 6003,
      "entre": 6004,
      "ĠSec": 6005,
      "æĲľç´¢": 6006,
      "Ġplatform": 6007,
      "Ġberusia": 6008,
      "Ġakhirnya": 6009,
      "Ex": 6010,
      "ĠBesar": 6011,
      "PEN": 6012,
      "Ġgrow": 6013,
      "ĠBR": 6014,
      "Ġhilang": 6015,
      "etak": 6016,
      "ping": 6017,
      "Ġbuild": 6018,
      "Ġterkini": 6019,
      "ĠBUS": 6020,
      "Ġlatihan": 6021,
      "æĹłèģĬ": 6022,
      "istry": 6023,
      "erita": 6024,
      "ĠSab": 6025,
      "ĠMa": 6026,
      "ethod": 6027,
      "à¨ª": 6028,
      "è§Ĥ": 6029,
      "ahter": 6030,
      "SELANGOR": 6031,
      "raj": 6032,
      "TE": 6033,
      "Ġfound": 6034,
      "Ġcountry": 6035,
      "NS": 6036,
      "Ġadministration": 6037,
      "ç¦ı": 6038,
      "Ġpeningkatan": 6039,
      "ats": 6040,
      "èĤ²": 6041,
      "ectiv": 6042,
      "ebr": 6043,
      "TGCG": 6044,
      "ediaan": 6045,
      "Click": 6046,
      "Ġtarikh": 6047,
      "æĺĵ": 6048,
      "itor": 6049,
      "Ġtok": 6050,
      "ATGG": 6051,
      "ï¿½ï¿½ï¿½ï¿½ï¿½ï¿½": 6052,
      "éģŃ": 6053,
      "Ġkesalahan": 6054,
      "unuh": 6055,
      "araf": 6056,
      "dagangan": 6057,
      "AGAC": 6058,
      "ATH": 6059,
      "weet": 6060,
      "éĥ½æĺ¯": 6061,
      "Ġkaedah": 6062,
      "ĠPUT": 6063,
      "atuh": 6064,
      "ION": 6065,
      "Ġapplic": 6066,
      "Ġkepentingan": 6067,
      "ĠPenolong": 6068,
      "Ġgreat": 6069,
      "å¥½ç¬ĳ": 6070,
      "Ġsambil": 6071,
      "Ġcab": 6072,
      "UNITED": 6073,
      "aklum": 6074,
      "ĠAll": 6075,
      "æĽ´å¤ļ": 6076,
      "Ġdila": 6077,
      "Ġ80": 6078,
      "à®ľ": 6079,
      "Eng": 6080,
      "Ġ45": 6081,
      "Ġfull": 6082,
      "Ġhadir": 6083,
      "impinan": 6084,
      "Ġjawatan": 6085,
      "ehingga": 6086,
      "ĠSa": 6087,
      "ĠLaporan": 6088,
      "Ġdikeluarkan": 6089,
      "AAAAG": 6090,
      "ĠĠĊĠ": 6091,
      "à®¤à®®": 6092,
      "ATA": 6093,
      "Ġlife": 6094,
      "obile": 6095,
      "UBLIC": 6096,
      "So": 6097,
      "ebat": 6098,
      "uly": 6099,
      "Ġbro": 6100,
      "ancang": 6101,
      "å£°": 6102,
      "TICS": 6103,
      "adangan": 6104,
      "outube": 6105,
      "Ġbetter": 6106,
      "Ġmov": 6107,
      "ĠAwam": 6108,
      "pust": 6109,
      "ABRIC": 6110,
      "zi": 6111,
      "Ġorder": 6112,
      "Peny": 6113,
      "dress": 6114,
      "ĠéĿ¢åŃĲä¹¦": 6115,
      "anggil": 6116,
      "Ġmenjaga": 6117,
      "Ġà®Ĵà®°": 6118,
      "bin": 6119,
      "ajak": 6120,
      "ĠData": 6121,
      "Ġang": 6122,
      "kel": 6123,
      "Ġmeminta": 6124,
      "Ġantar": 6125,
      "ulation": 6126,
      "inat": 6127,
      "ĠSetiap": 6128,
      "ategori": 6129,
      "ĠAmerika": 6130,
      "Ġkur": 6131,
      "top": 6132,
      "Ġmenjawab": 6133,
      "ĠSWT": 6134,
      "ĠSEM": 6135,
      "icro": 6136,
      "Ġperformance": 6137,
      "anyaan": 6138,
      "trik": 6139,
      "??": 6140,
      "Â«": 6141,
      "ĠSultan": 6142,
      "2010": 6143,
      "esen": 6144,
      "Ø´": 6145,
      "800": 6146,
      "ogn": 6147,
      "SS": 6148,
      "Ġeduc": 6149,
      "ujukan": 6150,
      "ĠKEP": 6151,
      "INESS": 6152,
      "ĠINS": 6153,
      "rr": 6154,
      "Ġkual": 6155,
      "KL": 6156,
      "sw": 6157,
      "Ġpunya": 6158,
      "æīĢæľī": 6159,
      "Ġrespon": 6160,
      "åĽ¾çīĩ": 6161,
      "Ġ90": 6162,
      "ability": 6163,
      "çİ°åľ¨": 6164,
      "tahun": 6165,
      "Ġaset": 6166,
      "250": 6167,
      "ATUR": 6168,
      "Ġland": 6169,
      "Kelantan": 6170,
      "count": 6171,
      "Ġdev": 6172,
      "Ġ07": 6173,
      "MT": 6174,
      "äººçļĦ": 6175,
      "å¸Ń": 6176,
      "JOHOR": 6177,
      "mo": 6178,
      "Ġkawan": 6179,
      "Ġapakah": 6180,
      "Kuala": 6181,
      "Ġà®ı": 6182,
      "bon": 6183,
      "Im": 6184,
      "Ġtekan": 6185,
      "utnya": 6186,
      "afs": 6187,
      "Ġsokongan": 6188,
      "emukakan": 6189,
      "à®ķà®µ": 6190,
      "ä¸įä¼ļ": 6191,
      "ĠJangan": 6192,
      "eak": 6193,
      "antara": 6194,
      "TAGG": 6195,
      "BAYAR": 6196,
      "Ġimpro": 6197,
      "Pahang": 6198,
      "Ġwithout": 6199,
      "Ġpemimpin": 6200,
      "Cl": 6201,
      "ATE": 6202,
      "Ġterakhir": 6203,
      "Ġtingkat": 6204,
      "On": 6205,
      "Ġmenceritakan": 6206,
      "é»ĳ": 6207,
      "Ġbekas": 6208,
      "à®Łà®©": 6209,
      "Ġleg": 6210,
      "ush": 6211,
      "èı²": 6212,
      "igher": 6213,
      "ĠKIND": 6214,
      "è¯ģ": 6215,
      "Ġkhas": 6216,
      "Ġkas": 6217,
      "ĠMinister": 6218,
      "AGTC": 6219,
      "Ġkedudukan": 6220,
      "æıĲä¾Ľ": 6221,
      "------": 6222,
      "oi": 6223,
      "My": 6224,
      "æĳĺè¦ģ": 6225,
      "not": 6226,
      "ĠPOLY": 6227,
      "Ġseterusnya": 6228,
      "åĩ»": 6229,
      "Ġmenonton": 6230,
      "antikan": 6231,
      "ULAU": 6232,
      "å±ŀ": 6233,
      "Ġ39": 6234,
      "Ġbumi": 6235,
      "kau": 6236,
      "Ġdijalankan": 6237,
      "ĠKesihatan": 6238,
      "IGHT": 6239,
      "Ġpasangan": 6240,
      "PORTAL": 6241,
      "Ġperl": 6242,
      "ç¢": 6243,
      "ume": 6244,
      "ĠJadual": 6245,
      "à¨Ī": 6246,
      "Ġlagu": 6247,
      "Ġtambahan": 6248,
      "åħ±": 6249,
      "ATTAT": 6250,
      "TABLE": 6251,
      "ISE": 6252,
      "omes": 6253,
      "Ġservice": 6254,
      "LY": 6255,
      "ĠEBAYAR": 6256,
      "Ġmarkah": 6257,
      "ĠWE": 6258,
      "ĠKemudian": 6259,
      "Ġonline": 6260,
      "Ġdiperoleh": 6261,
      "ACCG": 6262,
      "ausaha": 6263,
      "ç®Ģ": 6264,
      "TTAAT": 6265,
      "014": 6266,
      "Ġlaunch": 6267,
      "roduc": 6268,
      "abit": 6269,
      "ahaman": 6270,
      "åĽŃ": 6271,
      "Ġopen": 6272,
      "éħį": 6273,
      "ĠSembilan": 6274,
      "Ġstor": 6275,
      "Ya": 6276,
      "ĠSCIEN": 6277,
      "emui": 6278,
      "Ġmenang": 6279,
      "ï½": 6280,
      "sik": 6281,
      "bit": 6282,
      "Ġkenderaan": 6283,
      "uara": 6284,
      "formation": 6285,
      "ĠRaja": 6286,
      "è°¢": 6287,
      "tip": 6288,
      "AAAAC": 6289,
      "Ġgel": 6290,
      "itive": 6291,
      "å¸ĸ": 6292,
      "ĠRaz": 6293,
      "Ġpemerintah": 6294,
      "ĠSOL": 6295,
      "aliknya": 6296,
      "Ġtubuh": 6297,
      "roid": 6298,
      "RA": 6299,
      "ibadi": 6300,
      "ç¾İé£Ł": 6301,
      "Ġbayi": 6302,
      "TGGG": 6303,
      "amar": 6304,
      "anduan": 6305,
      "Ġ02": 6306,
      "ATS": 6307,
      "æĶ¯": 6308,
      "æĪĺ": 6309,
      "ĠBUSINESS": 6310,
      "Ø°": 6311,
      "ries": 6312,
      "ç¼ĸ": 6313,
      "work": 6314,
      "ĠNajib": 6315,
      "æĢĿ": 6316,
      "HAD": 6317,
      "Ġpercaya": 6318,
      "ony": 6319,
      "23456": 6320,
      "fort": 6321,
      "Sabah": 6322,
      "ukuran": 6323,
      "Ø§Ùħ": 6324,
      "ĠDar": 6325,
      "Pegawai": 6326,
      "nt": 6327,
      "ference": 6328,
      "ĠGred": 6329,
      "angi": 6330,
      "æĹ¶åĢĻ": 6331,
      "Ġsince": 6332,
      "ĠPLAS": 6333,
      "åº·": 6334,
      "Ġener": 6335,
      "èĩªåĬ¨": 6336,
      "Ġautom": 6337,
      "æ¥": 6338,
      "Ġula": 6339,
      "Ġmemenuhi": 6340,
      "æĿİ": 6341,
      "Ġpent": 6342,
      "Ġpokok": 6343,
      "å¤ĩ": 6344,
      "Ġsila": 6345,
      "Ġobjek": 6346,
      "Ġmembeli": 6347,
      "ALAM": 6348,
      "åĽĽ": 6349,
      "PPD": 6350,
      "eneral": 6351,
      "harga": 6352,
      "Ġtangg": 6353,
      "asakan": 6354,
      "Ġsukar": 6355,
      "enaran": 6356,
      "åı¦": 6357,
      "Br": 6358,
      "ujudkan": 6359,
      "Ġæľ¬": 6360,
      "Ġà®ľ": 6361,
      "Ġcase": 6362,
      "oin": 6363,
      "Ġ48": 6364,
      "itions": 6365,
      "ĠCont": 6366,
      "ĠUP": 6367,
      "esis": 6368,
      "ç¾¤": 6369,
      "ye": 6370,
      "Ġsegera": 6371,
      "icy": 6372,
      "onstr": 6373,
      "Ġhealth": 6374,
      "æĿ¡": 6375,
      "éĤĢè¯·": 6376,
      "ĠÂ©": 6377,
      "BR": 6378,
      "urance": 6379,
      "inance": 6380,
      "Ġminta": 6381,
      "JPN": 6382,
      "åĵ¥": 6383,
      "éĢģ": 6384,
      "Ġbinti": 6385,
      "Ġdue": 6386,
      "efon": 6387,
      "KU": 6388,
      "Ġperaturan": 6389,
      "Ġperjalanan": 6390,
      "Ġcourse": 6391,
      "Dis": 6392,
      "ovel": 6393,
      "Ġguna": 6394,
      "åŀĭ": 6395,
      "Ġmajor": 6396,
      "med": 6397,
      "angani": 6398,
      "ĠLe": 6399,
      "Ġeconom": 6400,
      "Ġexc": 6401,
      "telah": 6402,
      "ĠMAK": 6403,
      "å¡": 6404,
      "èĦ¸ä¹¦": 6405,
      "Ġkemas": 6406,
      "æĪĳçļĦ": 6407,
      "eting": 6408,
      "Ġsepen": 6409,
      "mod": 6410,
      "bat": 6411,
      "ras": 6412,
      "Ġterc": 6413,
      "ĠTHEIR": 6414,
      "istiwa": 6415,
      "Ġhospital": 6416,
      "åĨł": 6417,
      "ĠYus": 6418,
      "Ġsuara": 6419,
      "ica": 6420,
      "Ġcontrol": 6421,
      "ĠTimbalan": 6422,
      "Ġmuncul": 6423,
      "Ġenj": 6424,
      "Ġlight": 6425,
      "åĩĨ": 6426,
      "SH": 6427,
      "Ġberubah": 6428,
      "otong": 6429,
      "åħ´": 6430,
      "éº": 6431,
      "Terengganu": 6432,
      "AHAN": 6433,
      "OTA": 6434,
      "seperti": 6435,
      "ungguh": 6436,
      "ĠKelantan": 6437,
      "ATIC": 6438,
      "tt": 6439,
      "Ġstatus": 6440,
      "ĠMAN": 6441,
      "ĠPe": 6442,
      "ä¸įè¿ĩ": 6443,
      "adbiran": 6444,
      "åķĬ": 6445,
      "cm": 6446,
      "adis": 6447,
      "Ġsom": 6448,
      "rel": 6449,
      "çľĭåĪ°": 6450,
      "ĠIns": 6451,
      "Ġbelow": 6452,
      "Ġluas": 6453,
      "ĠSungai": 6454,
      "Ġrisiko": 6455,
      "2011": 6456,
      "Ġsamb": 6457,
      "GCCC": 6458,
      "ĠJep": 6459,
      "with": 6460,
      "Ġer": 6461,
      "çħ§çīĩ": 6462,
      "Am": 6463,
      "ufact": 6464,
      "æį·": 6465,
      "åį°": 6466,
      "ĠTHEREOF": 6467,
      "Ġsituasi": 6468,
      "Ġcond": 6469,
      "ware": 6470,
      "ĠTV": 6471,
      "ARATUS": 6472,
      "Ġdaya": 6473,
      "à®ķà®°": 6474,
      "emahan": 6475,
      "enj": 6476,
      "ertai": 6477,
      "UID": 6478,
      "Bagi": 6479,
      "ä¹Łæĺ¯": 6480,
      "Sel": 6481,
      "outh": 6482,
      "Ġlet": 6483,
      "ership": 6484,
      "ä¸¾": 6485,
      "nilai": 6486,
      "Ġinstr": 6487,
      "AMPIN": 6488,
      "ç»Ī": 6489,
      "Ġadik": 6490,
      "Ġï¿½ï¿½ï¿½": 6491,
      "ether": 6492,
      "ĠDIS": 6493,
      "ĠSE": 6494,
      "Ġreview": 6495,
      "kurang": 6496,
      "ĠManagement": 6497,
      "Ġmendapati": 6498,
      "emukan": 6499,
      "ĠMETAL": 6500,
      "ĠOktober": 6501,
      "Ġ04": 6502,
      "Ġzaman": 6503,
      "uga": 6504,
      "Ġdianggap": 6505,
      "bert": 6506,
      "Ġnya": 6507,
      "LN": 6508,
      "ĠMe": 6509,
      "erusi": 6510,
      "700": 6511,
      "illa": 6512,
      "Ġli": 6513,
      "Ġmar": 6514,
      "mula": 6515,
      "ĠThere": 6516,
      "å¢ŀ": 6517,
      "apaian": 6518,
      "pd": 6519,
      "Set": 6520,
      "Ġakaun": 6521,
      "elih": 6522,
      "EXTI": 6523,
      "Ġfood": 6524,
      "ç§¯": 6525,
      "Ġdemi": 6526,
      "off": 6527,
      "èµĽ": 6528,
      "ending": 6529,
      "ococ": 6530,
      "åĶ±": 6531,
      "Ġnombor": 6532,
      "emikian": 6533,
      "oman": 6534,
      "Ġgiven": 6535,
      "å°¼": 6536,
      "Ġmenulis": 6537,
      "ĠTerengganu": 6538,
      "oney": 6539,
      "çº§": 6540,
      "Ġsim": 6541,
      "ampil": 6542,
      "å®Ŀ": 6543,
      "periksaan": 6544,
      "ying": 6545,
      "Ġà®¨à®Ł": 6546,
      "Ġlo": 6547,
      "Ġbilion": 6548,
      "acaan": 6549,
      "keb": 6550,
      "åħ¹": 6551,
      "ĠSep": 6552,
      "ĠSHE": 6553,
      "ĠFir": 6554,
      "å¹¿": 6555,
      "unction": 6556,
      "ĠIC": 6557,
      "Ġgas": 6558,
      "Ġselamat": 6559,
      "Ġlang": 6560,
      "Ġ%": 6561,
      "par": 6562,
      "Ġhi": 6563,
      "ĠMet": 6564,
      "ATAAT": 6565,
      "éľĢè¦ģ": 6566,
      "ĠHasil": 6567,
      "Ġindustry": 6568,
      "ways": 6569,
      "benar": 6570,
      "ĠLAW": 6571,
      "ä½İ": 6572,
      "ðŁĶ": 6573,
      "ĠBut": 6574,
      "Ġminit": 6575,
      "ords": 6576,
      "ging": 6577,
      "TO": 6578,
      "æĻļ": 6579,
      "indah": 6580,
      "éĶĻ": 6581,
      "Kem": 6582,
      "åįĸ": 6583,
      "Ġkerjasama": 6584,
      "Ġ37": 6585,
      "é¾Ļ": 6586,
      "ruari": 6587,
      "Ġsementara": 6588,
      "MO": 6589,
      "è¥¿äºļ": 6590,
      "Ġstate": 6591,
      "Ġwindow": 6592,
      "ĠSains": 6593,
      "ĠAG": 6594,
      "ĠMaklumat": 6595,
      "ĠEk": 6596,
      "Ġteam": 6597,
      "ped": 6598,
      "mit": 6599,
      "ANDAR": 6600,
      "ĠIbrahim": 6601,
      "Ġless": 6602,
      "ï¼Łï¼ģ": 6603,
      "angkutan": 6604,
      "ects": 6605,
      "Ġplace": 6606,
      "ĠAman": 6607,
      "ĠWith": 6608,
      "Ø¶": 6609,
      "ĠLembaga": 6610,
      "Ġcome": 6611,
      "Ġbersifat": 6612,
      "ĠOgos": 6613,
      "erhana": 6614,
      "TTTTTT": 6615,
      "uture": 6616,
      "ĠBN": 6617,
      "ĠBarat": 6618,
      "rasi": 6619,
      "Ø·": 6620,
      "ĠRam": 6621,
      "Ġlokasi": 6622,
      "ubuhan": 6623,
      "Ġ85": 6624,
      "DI": 6625,
      "====": 6626,
      "à®¯à®²": 6627,
      "ĠUSED": 6628,
      "Ġpopular": 6629,
      "amakan": 6630,
      "2009": 6631,
      "ĠACC": 6632,
      "è½½": 6633,
      "Ġsing": 6634,
      "ĠJulai": 6635,
      "adilan": 6636,
      "Ġmengeluarkan": 6637,
      "asiswa": 6638,
      "ĠPlay": 6639,
      "ĠJaya": 6640,
      "ĠOILS": 6641,
      "TIF": 6642,
      "110": 6643,
      "Ġhid": 6644,
      "ges": 6645,
      "akanan": 6646,
      "TUN": 6647,
      "Ġsiap": 6648,
      "Ġterutama": 6649,
      "ĠMACHINES": 6650,
      "Ġaccount": 6651,
      "Ġputih": 6652,
      "Ġdigital": 6653,
      "ĠAPPARATUS": 6654,
      "Ġsedia": 6655,
      "è£ħ": 6656,
      "ĠFABRIC": 6657,
      "ĠKelas": 6658,
      "åĽ½å®¶": 6659,
      "ungkinan": 6660,
      "ĠGe": 6661,
      "Ġkhusus": 6662,
      "ĠCR": 6663,
      "KH": 6664,
      "onal": 6665,
      "TOR": 6666,
      "erst": 6667,
      "Ġsaw": 6668,
      "ALLY": 6669,
      "Ġarea": 6670,
      "æĶ¹": 6671,
      "è¾ĥ": 6672,
      "å®³": 6673,
      "ĠMad": 6674,
      "éļı": 6675,
      "intaan": 6676,
      "ĠReg": 6677,
      "rajaya": 6678,
      "Dengan": 6679,
      "Ġaplikasi": 6680,
      "acy": 6681,
      "JK": 6682,
      "aper": 6683,
      "Ġtanya": 6684,
      "Ġinformasi": 6685,
      "ĠMEN": 6686,
      "ails": 6687,
      "Ø§Øª": 6688,
      "ç®Ĺ": 6689,
      "Ġ--": 6690,
      ".(": 6691,
      "uluskan": 6692,
      "ococcus": 6693,
      "Ġfilem": 6694,
      "Ġtua": 6695,
      "Ġlemb": 6696,
      "ĠPINANG": 6697,
      "Ġkomen": 6698,
      "ĠPARTS": 6699,
      "ATING": 6700,
      "Ġens": 6701,
      "Ġdevelop": 6702,
      "Ġable": 6703,
      "Tok": 6704,
      "tan": 6705,
      "asikan": 6706,
      "bagi": 6707,
      "tinya": 6708,
      "ĠRo": 6709,
      "åĢ¼": 6710,
      "EO": 6711,
      "uruf": 6712,
      "ĠDG": 6713,
      "anjung": 6714,
      "adikan": 6715,
      "ajuk": 6716,
      "ĠInter": 6717,
      "150": 6718,
      "TCCC": 6719,
      "åĪĽ": 6720,
      "Ġport": 6721,
      "Ġumat": 6722,
      "ĠBE": 6723,
      "urah": 6724,
      "FR": 6725,
      "è¿ĻäºĽ": 6726,
      "ĠCL": 6727,
      "astra": 6728,
      "ĠSTAT": 6729,
      "ç¥¥": 6730,
      "Ġlim": 6731,
      "Sub": 6732,
      "ãĤ": 6733,
      "Ø«": 6734,
      "à©į": 6735,
      "ahulu": 6736,
      "anji": 6737,
      "Ġur": 6738,
      "Ġlot": 6739,
      "ianya": 6740,
      "lar": 6741,
      "è¡Ĺ": 6742,
      "Ġdoktor": 6743,
      "omor": 6744,
      "Ġbilangan": 6745,
      "ondisi": 6746,
      "Ġorganisasi": 6747,
      "LAND": 6748,
      "ASES": 6749,
      "ived": 6750,
      "Namun": 6751,
      "Ġenam": 6752,
      "éĺħ": 6753,
      "ENGGANU": 6754,
      "åĲ¬": 6755,
      "æŃ¥": 6756,
      "What": 6757,
      "ç±»": 6758,
      "ĠKedah": 6759,
      "perty": 6760,
      "URUSAN": 6761,
      "Ġtakut": 6762,
      "203": 6763,
      "ĠUtama": 6764,
      "lip": 6765,
      "Ġissu": 6766,
      "ĠUnit": 6767,
      "ĠMedia": 6768,
      "à¯ģ,": 6769,
      "ĠCol": 6770,
      "ĠFL": 6771,
      "wayat": 6772,
      "Ġlatest": 6773,
      "Ġwilayah": 6774,
      "ĠOne": 6775,
      "Ġà¨¤": 6776,
      "ducation": 6777,
      "éĢı": 6778,
      "ĠWar": 6779,
      "ions": 6780,
      "son": 6781,
      "Ġkeber": 6782,
      "Ġfour": 6783,
      "eluaran": 6784,
      "ĠSCIENCES": 6785,
      "intahan": 6786,
      "ibut": 6787,
      "Tanaman": 6788,
      "ĠMark": 6789,
      "ekalkan": 6790,
      "ĠRev": 6791,
      "äºĶ": 6792,
      "23456789": 6793,
      "Ġcomes": 6794,
      "SOCIAL": 6795,
      "Ġbergerak": 6796,
      "Ġbercakap": 6797,
      "Ġfamily": 6798,
      "Ġberkongsi": 6799,
      "Ġdiadakan": 6800,
      "Ġduit": 6801,
      "è¿ĺæľī": 6802,
      "BS": 6803,
      "Facebook": 6804,
      "å¸®": 6805,
      "ahwin": 6806,
      "unci": 6807,
      "âĢĻ.": 6808,
      "isik": 6809,
      "Ġà®ħà®°à®ļ": 6810,
      "ĠREPUBLIC": 6811,
      "Ġspecial": 6812,
      "Ġpelajaran": 6813,
      "Ġà¨²": 6814,
      "uki": 6815,
      "ĠLab": 6816,
      "Melaka": 6817,
      "å¥ĩ": 6818,
      "antau": 6819,
      "Ġkemampuan": 6820,
      "ocus": 6821,
      "ĠScience": 6822,
      "ĠGer": 6823,
      "Ġmenentukan": 6824,
      "amsung": 6825,
      "åĳ¢": 6826,
      "yo": 6827,
      "embangkan": 6828,
      "Ġ2007": 6829,
      "ĠMeny": 6830,
      "ĠBukit": 6831,
      "Ġkeg": 6832,
      "ĠTBK": 6833,
      "menjadi": 6834,
      "Ġperbuatan": 6835,
      "é¢Ĩ": 6836,
      "AINS": 6837,
      "val": 6838,
      "å¸ĮæľĽ": 6839,
      "Ġpengg": 6840,
      "amkan": 6841,
      "Ġdikenali": 6842,
      "Â·Â·Â·Â·": 6843,
      "Ġmakna": 6844,
      "ÙĪØ±": 6845,
      "Ġannounc": 6846,
      "ĠLi": 6847,
      "ubat": 6848,
      "æ¸¯": 6849,
      "NI": 6850,
      "éĺŁ": 6851,
      "urity": 6852,
      "åĿ¡": 6853,
      "ended": 6854,
      "æ²»": 6855,
      "ĠGu": 6856,
      "ising": 6857,
      "nama": 6858,
      "Ġfeatures": 6859,
      "OLD": 6860,
      "Ġnetizen": 6861,
      "law": 6862,
      "wards": 6863,
      "ç½Ĺ": 6864,
      "ĠMORE": 6865,
      "Ġpintu": 6866,
      "ĠLebih": 6867,
      "æĿĢ": 6868,
      "ze": 6869,
      "Ġhadits": 6870,
      "å±ħ": 6871,
      "tors": 6872,
      "ATAG": 6873,
      "ĠJoh": 6874,
      "ĠDig": 6875,
      "åªĴ": 6876,
      "ĠSumber": 6877,
      "Ġfar": 6878,
      "aud": 6879,
      "ahwinan": 6880,
      "è½»": 6881,
      "ists": 6882,
      "à®³à®°": 6883,
      "èĤī": 6884,
      "Ġtitik": 6885,
      "tig": 6886,
      "olehan": 6887,
      "Ġamong": 6888,
      "Ġwebsite": 6889,
      "ampilan": 6890,
      "Ġkecuali": 6891,
      "Perk": 6892,
      "Ġunsur": 6893,
      "Ġaktif": 6894,
      "ĠSPECIFIED": 6895,
      "Sp": 6896,
      "ship": 6897,
      "2345678901": 6898,
      "kira": 6899,
      "clus": 6900,
      "Ġemas": 6901,
      "load": 6902,
      "010": 6903,
      "ujuh": 6904,
      "ĠKore": 6905,
      "du": 6906,
      "éĻĪ": 6907,
      "SY": 6908,
      "é¡¹": 6909,
      "ĠHealth": 6910,
      "engaruhi": 6911,
      "Ġforward": 6912,
      "hak": 6913,
      "Ġrun": 6914,
      "Ġperuntukan": 6915,
      "Ġanother": 6916,
      "onen": 6917,
      "Pertanian": 6918,
      "Ġemploy": 6919,
      "äº¿": 6920,
      "ĠFIBRES": 6921,
      "ĠMed": 6922,
      "EXTILE": 6923,
      "Ġproducts": 6924,
      "Ġlocal": 6925,
      "âĢĿãĢĤ": 6926,
      "011": 6927,
      "Ġvol": 6928,
      "Ġterpaksa": 6929,
      "ç§ģ": 6930,
      "ekaan": 6931,
      "Ġikut": 6932,
      "GAN": 6933,
      "ANUFAC": 6934,
      "ĠMaka": 6935,
      "æī¾åĽŀ": 6936,
      "ANUFACTUR": 6937,
      "Dari": 6938,
      "ĠPener": 6939,
      "Ġ38": 6940,
      "alal": 6941,
      "indd": 6942,
      "Des": 6943,
      "Ġsisi": 6944,
      "kenalkan": 6945,
      "Rel": 6946,
      "BN": 6947,
      "ĠSemua": 6948,
      "Bab": 6949,
      "Ġpelanc": 6950,
      "PU": 6951,
      "2008": 6952,
      "Mem": 6953,
      "ä¸Ģèµ·": 6954,
      "ĠBila": 6955,
      "ĠWan": 6956,
      "éŁ©": 6957,
      "IRAN": 6958,
      "ĠVol": 6959,
      "log": 6960,
      "ebihi": 6961,
      "Ġà®ĩà®¤": 6962,
      "Ġques": 6963,
      "å¯¼èĪª": 6964,
      "sub": 6965,
      "Ġkandungan": 6966,
      "nov": 6967,
      "è´ª": 6968,
      "elesaian": 6969,
      "untungan": 6970,
      "ĠAct": 6971,
      "ournal": 6972,
      "Ġri": 6973,
      "aklumkan": 6974,
      "ize": 6975,
      "ĠTadbir": 6976,
      "Ġkr": 6977,
      "ease": 6978,
      "andat": 6979,
      "Ġperkataan": 6980,
      "oid": 6981,
      "ĠTengah": 6982,
      "kipun": 6983,
      "æ±¡": 6984,
      "Ġorgan": 6985,
      "ĠIl": 6986,
      "Ġpm": 6987,
      "Ġsamping": 6988,
      "Ġïģ": 6989,
      "æľ¯": 6990,
      "umumkan": 6991,
      "ä»½": 6992,
      "Ġdokumen": 6993,
      "Ġhome": 6994,
      "ç»Ŀ": 6995,
      "ĠIndia": 6996,
      "Ġkematian": 6997,
      "Ġpakai": 6998,
      "Ġmendengar": 6999,
      "asing": 7000,
      "åĨħå®¹": 7001,
      "Ġwww": 7002,
      "amed": 7003,
      "ĠYANG": 7004,
      "gest": 7005,
      "ograf": 7006,
      "uhu": 7007,
      "ĠKan": 7008,
      "ç¬¬ä¸Ģ": 7009,
      "è¿Ľè¡Į": 7010,
      "ĠDo": 7011,
      "ĠØ±": 7012,
      "ĠPemer": 7013,
      "lished": 7014,
      "121": 7015,
      "Ġjangka": 7016,
      "ĊĠĠ": 7017,
      "Ġperasaan": 7018,
      "015": 7019,
      "æľĢçĥŃ": 7020,
      "Ġlupa": 7021,
      "erd": 7022,
      "iru": 7023,
      "Ġkekal": 7024,
      "Ġoffer": 7025,
      "ape": 7026,
      "alaxy": 7027,
      "ç©¿": 7028,
      "ĠSelatan": 7029,
      "Ġciri": 7030,
      "æľĢåĲİ": 7031,
      "Ġidea": 7032,
      "Ġlaut": 7033,
      "irc": 7034,
      "osit": 7035,
      "IAL": 7036,
      "aiwan": 7037,
      "ĠFABRICS": 7038,
      "Ġtechnology": 7039,
      "TGTT": 7040,
      "ĠSUL": 7041,
      "Ġagainst": 7042,
      "Ġkemahiran": 7043,
      "ĠServ": 7044,
      "isasi": 7045,
      "ler": 7046,
      "Ġmajlis": 7047,
      "åįĥ": 7048,
      "èµĦè®¯ç½ĳ": 7049,
      "ĠIII": 7050,
      "jau": 7051,
      "ĠAziz": 7052,
      "Ġdibenarkan": 7053,
      "Indonesia": 7054,
      "Ġdoc": 7055,
      "Ġmanagement": 7056,
      "ĠçĶ¨æĪ·": 7057,
      "wayatkan": 7058,
      "ä¸įè¦ģ": 7059,
      "åįĩ": 7060,
      "IDS": 7061,
      "Ġpelaburan": 7062,
      "Ġsias": 7063,
      "Ġmenyebut": 7064,
      "amal": 7065,
      "ä½³ç¤¼èµĦè®¯ç½ĳ": 7066,
      "Oleh": 7067,
      "Ġ2001": 7068,
      "ird": 7069,
      "Nama": 7070,
      "é©¬æĿ¥è¥¿äºļ": 7071,
      "pel": 7072,
      "å¿«æį·": 7073,
      "èĻ½": 7074,
      "ĠKad": 7075,
      "pose": 7076,
      "aria": 7077,
      "iences": 7078,
      "Ġbot": 7079,
      "ĠMAS": 7080,
      "Ġbandar": 7081,
      "indungan": 7082,
      "EEL": 7083,
      "Ġauthor": 7084,
      "Ġnet": 7085,
      "Ġpanas": 7086,
      "Negeri": 7087,
      "Ġsebelah": 7088,
      "2000": 7089,
      "050": 7090,
      "ç±³": 7091,
      "ENS": 7092,
      "Ġsebelumnya": 7093,
      "aily": 7094,
      "Inst": 7095,
      "Ġ06": 7096,
      "ĠMel": 7097,
      "æ¯Ĵ": 7098,
      "Ġprobl": 7099,
      "THE": 7100,
      "iburan": 7101,
      "çº³åĲī": 7102,
      "ĠApakah": 7103,
      "ayang": 7104,
      "uni": 7105,
      "017": 7106,
      "ĠRES": 7107,
      "èĢĥ": 7108,
      "Ġbebas": 7109,
      "Pas": 7110,
      "èĦĳ": 7111,
      "Ġstruktur": 7112,
      "æĪı": 7113,
      "Ġgaris": 7114,
      "kn": 7115,
      "Ġïĥ": 7116,
      "Ġlamp": 7117,
      "è´Ń": 7118,
      "Ġà¨¬": 7119,
      "åľ°æĸ¹": 7120,
      "ĠIbu": 7121,
      "Ġpelanggan": 7122,
      "Ġkampung": 7123,
      "ceed": 7124,
      "Ġsoal": 7125,
      "emaja": 7126,
      "Ġbayaran": 7127,
      "ĠHas": 7128,
      "ITS": 7129,
      "ĠPEND": 7130,
      "Kami": 7131,
      "ĠChe": 7132,
      "Ġpelakon": 7133,
      "col": 7134,
      "é±": 7135,
      "tained": 7136,
      "ĠèĩªåĬ¨": 7137,
      "aff": 7138,
      "Ġ?": 7139,
      "operasi": 7140,
      "Ġmembolehkan": 7141,
      "Ġwajib": 7142,
      "ves": 7143,
      "Ġä½³ç¤¼ç½ĳ": 7144,
      "ĠÙĩ": 7145,
      "åıĳå¸ĥèĢħ": 7146,
      "Ġà®µà®´": 7147,
      "Ġsebahagian": 7148,
      "Bel": 7149,
      "ĠçĶ¨æĪ·åĲį": 7150,
      "åĳ¨æľĢçĥŃ": 7151,
      "åĳ¨æľĢçĥŃæĸĩç«ł": 7152,
      "æī¾åĽŀå¯Ĩçłģ": 7153,
      "å¿«æį·å¯¼èĪª": 7154,
      "ĠèĩªåĬ¨çĻ»å½ķ": 7155,
      "TCCG": 7156,
      "Ġgaya": 7157,
      "åħ¨éĥ¨": 7158,
      "Ġrasmi": 7159,
      "acter": 7160,
      "AHANG": 7161,
      "Ġdinyatakan": 7162,
      "å¾ħ": 7163,
      "Ġshalat": 7164,
      "ved": 7165,
      "Ġsocial": 7166,
      "è´¨": 7167,
      "Ġsun": 7168,
      "ATTTTT": 7169,
      "Ġhlm": 7170,
      "Kep": 7171,
      "ĠBoleh": 7172,
      "kand": 7173,
      "ric": 7174,
      "ĠKebangsaan": 7175,
      "anjir": 7176,
      "kaun": 7177,
      "ought": 7178,
      "akter": 7179,
      "imbang": 7180,
      "annya": 7181,
      "ming": 7182,
      "ĠÙĨ": 7183,
      "ames": 7184,
      "ERING": 7185,
      "ĠOther": 7186,
      "Ġpetang": 7187,
      "å§Ĳ": 7188,
      "Ġtentu": 7189,
      "Ġmengan": 7190,
      "wal": 7191,
      "Ġline": 7192,
      "ĠUtara": 7193,
      "ley": 7194,
      "Ġbig": 7195,
      "âĢĵâĢĵâĢĵâĢĵâĢĵâĢĵâĢĵâĢĵâĢĵâĢĵâĢĵâĢĵâĢĵâĢĵâĢĵâĢĵ": 7196,
      "epi": 7197,
      "BM": 7198,
      "unca": 7199,
      "Ġberter": 7200,
      "Pertua": 7201,
      "åŃ¦çĶŁ": 7202,
      "urat": 7203,
      "LED": 7204,
      "RON": 7205,
      "ĠKE": 7206,
      "BTPN": 7207,
      "Ġkota": 7208,
      "Ġlingkungan": 7209,
      "Ġest": 7210,
      "elajari": 7211,
      "èīº": 7212,
      "ĠIM": 7213,
      "ÙĪÙĦ": 7214,
      "irian": 7215,
      "andingkan": 7216,
      "ĠImp": 7217,
      "æĽĿ": 7218,
      "Ġberbeda": 7219,
      "oph": 7220,
      "identif": 7221,
      "ĠÂł": 7222,
      "ĠResearch": 7223,
      "æİĴ": 7224,
      "ried": 7225,
      "äºĨä¸Ģ": 7226,
      "ĠSystem": 7227,
      "ajikan": 7228,
      "Ġevent": 7229,
      "åģĩ": 7230,
      "Ġdays": 7231,
      "ACCC": 7232,
      "ca": 7233,
      "Ġsepenuhnya": 7234,
      "BOARD": 7235,
      "hg": 7236,
      "ĠSebagai": 7237,
      "ier": 7238,
      "åĻ": 7239,
      "Ġhitam": 7240,
      "ards": 7241,
      "ĠTaman": 7242,
      "åºķ": 7243,
      "Ġasal": 7244,
      "Ġlow": 7245,
      "press": 7246,
      "olar": 7247,
      "okus": 7248,
      "imia": 7249,
      "Ġudara": 7250,
      "Se": 7251,
      "åĨµ": 7252,
      "ĠBud": 7253,
      "antas": 7254,
      "123": 7255,
      "ift": 7256,
      "Ġdijadikan": 7257,
      "emu": 7258,
      "ĠFORMS": 7259,
      "Ġengine": 7260,
      "Ġshared": 7261,
      "Ġanti": 7262,
      "Ġdefin": 7263,
      "Ġnews": 7264,
      "å¤Ł": 7265,
      "ources": 7266,
      "ĠWorld": 7267,
      "Ġfree": 7268,
      "Ġtalian": 7269,
      "ELS": 7270,
      "Ġdidik": 7271,
      "etul": 7272,
      "ektif": 7273,
      "ä¼¤": 7274,
      "Ġfront": 7275,
      "éĺħè¯»": 7276,
      "OUR": 7277,
      "andi": 7278,
      "Ġpic": 7279,
      "inggit": 7280,
      "çıŃ": 7281,
      "Ġbaca": 7282,
      "åĽłæŃ¤": 7283,
      "BIL": 7284,
      "Ġlearning": 7285,
      ")(": 7286,
      "Ġhttps": 7287,
      "ðŁĶ¥": 7288,
      "æĢİ": 7289,
      "Ġkor": 7290,
      "æĹ¥æľ¬": 7291,
      "comp": 7292,
      "sApp": 7293,
      "IKE": 7294,
      "Ġprovide": 7295,
      "Ġpresent": 7296,
      "Ġschool": 7297,
      "ecah": 7298,
      "Es": 7299,
      "Ġmor": 7300,
      "awaran": 7301,
      "eam": 7302,
      "ĠPEMB": 7303,
      "îł": 7304,
      "Ġfurther": 7305,
      "ĠTimur": 7306,
      "JA": 7307,
      "ï¼ĮâĢľ": 7308,
      "Wilayah": 7309,
      "åħ»": 7310,
      "åĵĪè¿ª": 7311,
      "ĠHon": 7312,
      "Ġintegr": 7313,
      "ibr": 7314,
      "013": 7315,
      "Ġterbuka": 7316,
      "Ġactivities": 7317,
      "bangan": 7318,
      "atih": 7319,
      "GCTC": 7320,
      "Ġsolat": 7321,
      "Ġmengikuti": 7322,
      "ching": 7323,
      "ĠĠĊ": 7324,
      "ĠContoh": 7325,
      "ĠPahang": 7326,
      "AIR": 7327,
      "iah": 7328,
      "anies": 7329,
      "Ġpulang": 7330,
      "iplom": 7331,
      "èĩªå·±çļĦ": 7332,
      "ongsian": 7333,
      "ĠKhas": 7334,
      "igure": 7335,
      "anta": 7336,
      "è±¡": 7337,
      "kait": 7338,
      "Ġbij": 7339,
      "alia": 7340,
      "Ġreturn": 7341,
      "ï½ŀ": 7342,
      "Ġfund": 7343,
      "pun": 7344,
      "Ġà®ħà®©": 7345,
      "Ġ2006": 7346,
      "anyi": 7347,
      "AGTT": 7348,
      "Ġurusan": 7349,
      "Ġtokoh": 7350,
      "åķ¦": 7351,
      "ajuan": 7352,
      "Ġsmart": 7353,
      "ĠSch": 7354,
      "abda": 7355,
      "Ġsedangkan": 7356,
      "æĬ¤": 7357,
      "umpul": 7358,
      "Ġrawatan": 7359,
      "èĲ½": 7360,
      "æ®µ": 7361,
      "Ġbertanya": 7362,
      "ahid": 7363,
      "Ġkekuatan": 7364,
      "ero": 7365,
      "Ġmalah": 7366,
      "ulture": 7367,
      "Ġï¿½ï¿½": 7368,
      "Ġpenilaian": 7369,
      "è±ª": 7370,
      "Ġkertas": 7371,
      "Ġagensi": 7372,
      "iring": 7373,
      "DG": 7374,
      "Ġ99": 7375,
      "Ġtax": 7376,
      "Ġhor": 7377,
      "sedur": 7378,
      "letak": 7379,
      "Ġmaklum": 7380,
      "ĠAnwar": 7381,
      "å½¢": 7382,
      "Ġcheck": 7383,
      "JAD": 7384,
      "Ġweek": 7385,
      "MY": 7386,
      "ĠEm": 7387,
      "ahasa": 7388,
      "Ġtoday": 7389,
      "æĺ¾": 7390,
      "Ġ500": 7391,
      "Ġuc": 7392,
      "é±¼": 7393,
      "Ġwajah": 7394,
      "harap": 7395,
      "pe": 7396,
      "ĠEl": 7397,
      "wasta": 7398,
      "à®©à®¤": 7399,
      "UHAN": 7400,
      "eman": 7401,
      "TIONS": 7402,
      "åıĳçĶŁ": 7403,
      "arjana": 7404,
      "Ġfit": 7405,
      "Ġapi": 7406,
      "max": 7407,
      "çļĦæĺ¯": 7408,
      "SMK": 7409,
      "ength": 7410,
      "ĠPent": 7411,
      "æłĩ": 7412,
      "ĠSya": 7413,
      "tical": 7414,
      "ampiran": 7415,
      "ĠREC": 7416,
      "ikti": 7417,
      "Â¬": 7418,
      "ĠDevelopment": 7419,
      "ABAT": 7420,
      "Ġmerasa": 7421,
      "ijakan": 7422,
      "TEKSI": 7423,
      "Ġberupa": 7424,
      "ĠRed": 7425,
      "gak": 7426,
      "entuan": 7427,
      "åħ¶ä»ĸ": 7428,
      "Contoh": 7429,
      "NA": 7430,
      "uniti": 7431,
      "utkan": 7432,
      "Ġrespond": 7433,
      "ĠGoogle": 7434,
      "elor": 7435,
      "EGE": 7436,
      "çĶµå½±": 7437,
      "Ġkey": 7438,
      "Ġkhususnya": 7439,
      "Ġà®¤à®²": 7440,
      "kg": 7441,
      "Ġhigher": 7442,
      "Ġkalimat": 7443,
      "ĠUT": 7444,
      "Ġreally": 7445,
      "Ġsekal": 7446,
      "ĠApabila": 7447,
      "Ġartikel": 7448,
      "tery": 7449,
      "å¹¸": 7450,
      "Ġcharac": 7451,
      "Ġment": 7452,
      "ĠPart": 7453,
      ".'": 7454,
      "Ġkak": 7455,
      "ehold": 7456,
      "å®¤": 7457,
      "ĠBab": 7458,
      "ĠMahkamah": 7459,
      "CAR": 7460,
      "æ·±": 7461,
      "DING": 7462,
      "atak": 7463,
      "anjutnya": 7464,
      "ERV": 7465,
      "efin": 7466,
      "æģĲæĢ": 7467,
      "chi": 7468,
      "ĠMohamad": 7469,
      "ually": 7470,
      "ĠUndang": 7471,
      "ancarkan": 7472,
      "Res": 7473,
      "ample": 7474,
      "Ġcat": 7475,
      "iputi": 7476,
      "ĠFebruari": 7477,
      ",-": 7478,
      "Ġbiasanya": 7479,
      "Ġmembers": 7480,
      "akaan": 7481,
      "ĠKen": 7482,
      "ĠSun": 7483,
      "ĠKampung": 7484,
      "ä½Ĩæĺ¯": 7485,
      "serv": 7486,
      "Ġkg": 7487,
      "ØªÙĬ": 7488,
      "Ġmemperoleh": 7489,
      "Ġpolit": 7490,
      "çĪ¸": 7491,
      "Ġkot": 7492,
      "alysis": 7493,
      "Ġperanan": 7494,
      "Ġ43": 7495,
      "Ġitulah": 7496,
      "```": 7497,
      "Ġmusim": 7498,
      "Ġpub": 7499,
      "ĠKecil": 7500,
      "TUNAI": 7501,
      "Ġfeel": 7502,
      "ĠFin": 7503,
      "à®¯à®®": 7504,
      "Ġofficial": 7505,
      "elf": 7506,
      "Ġmembentuk": 7507,
      "Ġmil": 7508,
      "Ġinclude": 7509,
      "angunkan": 7510,
      "oot": 7511,
      "Ġfaham": 7512,
      "åı¤": 7513,
      "ONESIA": 7514,
      "Ø¥": 7515,
      "Ġdimaksud": 7516,
      "ARAH": 7517,
      "à®²à®®": 7518,
      "ivate": 7519,
      "Ġdikenakan": 7520,
      "UNAN": 7521,
      "Ġname": 7522,
      "Ble": 7523,
      "LI": 7524,
      "åĽ¾çīĩæĿ¥æºĲ": 7525,
      "osis": 7526,
      "ikulum": 7527,
      "Ġ41": 7528,
      "åİĨ": 7529,
      "ailand": 7530,
      "....": 7531,
      "ĠLot": 7532,
      "æĬķèµĦ": 7533,
      "ACGG": 7534,
      "ports": 7535,
      "Ġview": 7536,
      "çĭ¬": 7537,
      "Ġrate": 7538,
      "à®ħ": 7539,
      "Ġ55": 7540,
      "DEB": 7541,
      "icara": 7542,
      "ilities": 7543,
      "æĳĦ": 7544,
      "ĠSeksyen": 7545,
      "ible": 7546,
      "ENE": 7547,
      "ĠSu": 7548,
      "ITTED": 7549,
      "uck": 7550,
      "SA": 7551,
      "ĠPort": 7552,
      "izikal": 7553,
      "Ġrah": 7554,
      "Ġlengkap": 7555,
      "ĠBatu": 7556,
      "Ġprac": 7557,
      "dig": 7558,
      "Ġperang": 7559,
      "AGI": 7560,
      "Cukai": 7561,
      "ĠCari": 7562,
      "ĠBAR": 7563,
      "At": 7564,
      "Ġroad": 7565,
      "Ġpukul": 7566,
      "à®¯à®°": 7567,
      "ival": 7568,
      "à©Ĥà©°": 7569,
      "æĻ¯": 7570,
      "Undang": 7571,
      "Ġgen": 7572,
      "endali": 7573,
      "ĠBar": 7574,
      "ĠPLASTICS": 7575,
      "Ġsenarai": 7576,
      "MAR": 7577,
      "çĸĳ": 7578,
      "AYAH": 7579,
      "acks": 7580,
      "Ġamount": 7581,
      "year": 7582,
      "Ġdiam": 7583,
      "ĠïĢ": 7584,
      "Ġbeh": 7585,
      "Ġchang": 7586,
      "jur": 7587,
      "Ġdana": 7588,
      "Quran": 7589,
      "ikTok": 7590,
      "ĠMul": 7591,
      "Ġtangga": 7592,
      "Ġ42": 7593,
      "Ġtar": 7594,
      "BleG": 7595,
      "avel": 7596,
      "Ġimportant": 7597,
      "bas": 7598,
      "ä¾ĭ": 7599,
      "ĠRec": 7600,
      "Ġpul": 7601,
      "Ġmengurangkan": 7602,
      "ĠLatihan": 7603,
      "ĠMuda": 7604,
      "Ġsar": 7605,
      "é©¬åĵĪè¿ª": 7606,
      "Ġok": 7607,
      "emer": 7608,
      "crip": 7609,
      "Ġsela": 7610,
      "ney": 7611,
      "eberang": 7612,
      "ĠChin": 7613,
      "ĠTechnology": 7614,
      "çĶ»": 7615,
      "âĢĥ": 7616,
      "aib": 7617,
      "Ġpakaian": 7618,
      "Ġseni": 7619,
      "ĠFr": 7620,
      "alleng": 7621,
      "Ġeducation": 7622,
      "UAR": 7623,
      "ualan": 7624,
      "çĻ¾": 7625,
      "ľĵ": 7626,
      "bab": 7627,
      "rik": 7628,
      "isiatif": 7629,
      "Ġdiv": 7630,
      "900": 7631,
      "IKLAN": 7632,
      "hidmat": 7633,
      "INED": 7634,
      "à¨¬": 7635,
      "Ġrest": 7636,
      "ĠLelaki": 7637,
      "ĠMANUFACTUR": 7638,
      "iktiraf": 7639,
      "ĠJawa": 7640,
      "Ġprinsip": 7641,
      "çļĦæľĭåıĭ": 7642,
      "lease": 7643,
      "ĠLIKE": 7644,
      "ĠRp": 7645,
      "Ġfew": 7646,
      "Ġtau": 7647,
      "PD": 7648,
      "indungi": 7649,
      "undi": 7650,
      "ĠAbd": 7651,
      "vi": 7652,
      "Ġpass": 7653,
      "unakan": 7654,
      "AAATC": 7655,
      "Ġdate": 7656,
      "EJABAT": 7657,
      "Ġsmall": 7658,
      "åı«": 7659,
      "lit": 7660,
      "EV": 7661,
      "ulusan": 7662,
      "EDING": 7663,
      "aster": 7664,
      "ĠInternet": 7665,
      "æĭ¬": 7666,
      "ĠZain": 7667,
      "éĻ©": 7668,
      "Ġberusaha": 7669,
      "ĠPerm": 7670,
      "akui": 7671,
      "åŃĺ": 7672,
      "ĠPERAK": 7673,
      "oading": 7674,
      "ĠBuku": 7675,
      "å«": 7676,
      "pl": 7677,
      "Ġberhubung": 7678,
      "ĠOc": 7679,
      "æķħ": 7680,
      "åĸľæ¬¢": 7681,
      "åĨĽ": 7682,
      "ĠYear": 7683,
      "otos": 7684,
      "119": 7685,
      "iksa": 7686,
      "210": 7687,
      "ĠSes": 7688,
      "itle": 7689,
      "FF": 7690,
      "Ġmerah": 7691,
      "æ´»åĬ¨": 7692,
      "Ġcari": 7693,
      "ĠPenc": 7694,
      "Ġmenambah": 7695,
      "è®¯": 7696,
      "åħ¶å®ŀ": 7697,
      "alangan": 7698,
      "ues": 7699,
      "ĠDAR": 7700,
      "Sedang": 7701,
      "ĠSingapore": 7702,
      "oon": 7703,
      "ĠSalah": 7704,
      "Ġterutamanya": 7705,
      "Ġjualan": 7706,
      "Ġanalisis": 7707,
      "ĠKES": 7708,
      "ĠPERSEKUTUAN": 7709,
      "ï¿½ï¿½ï¿½ï¿½ï¿½ï¿½ï¿½": 7710,
      "enangan": 7711,
      "Ġgive": 7712,
      "ĠNON": 7713,
      "uci": 7714,
      "Ġhold": 7715,
      "Ġmeans": 7716,
      "Ø²": 7717,
      "Ġrange": 7718,
      "åįļ": 7719,
      "Ġcover": 7720,
      "ĠKedua": 7721,
      "Ġbillion": 7722,
      "agia": 7723,
      "ĠAustr": 7724,
      "ĠÙħÙĨ": 7725,
      "å¥ĸ": 7726,
      "essional": 7727,
      "ĠLim": 7728,
      "å¯Į": 7729,
      "leks": 7730,
      "ILAN": 7731,
      "ĠCour": 7732,
      "kini": 7733,
      "ĠFil": 7734,
      "Ġarr": 7735,
      "atasi": 7736,
      "If": 7737,
      "PENG": 7738,
      "Share": 7739,
      "ĠTEXTILE": 7740,
      "Kalau": 7741,
      "DEBIT": 7742,
      "è¡Ģ": 7743,
      "TGTG": 7744,
      "iff": 7745,
      "æģĲæĢĸ": 7746,
      "YD": 7747,
      "Ġdijangka": 7748,
      "Ġkebenaran": 7749,
      "Ġfri": 7750,
      "mark": 7751,
      "Program": 7752,
      "ahari": 7753,
      "æŃ¢": 7754,
      "ĠBM": 7755,
      "jah": 7756,
      "ĠNational": 7757,
      "Ġbahkan": 7758,
      "Ġ....": 7759,
      "Qur": 7760,
      "ides": 7761,
      "ĠæĶ¶èĹı": 7762,
      "resent": 7763,
      "ATU": 7764,
      "åºĶè¯¥": 7765,
      "ĠMO": 7766,
      "untutan": 7767,
      "ASAN": 7768,
      "Ġberlangsung": 7769,
      "çŁ¥éģĵ": 7770,
      "named": 7771,
      "Ġpertumbuhan": 7772,
      "Ġnovel": 7773,
      "ORAN": 7774,
      "udahkan": 7775,
      "Islam": 7776,
      "secara": 7777,
      "Ġtelefon": 7778,
      "Ġingat": 7779,
      "Ġmanfaat": 7780,
      "uage": 7781,
      "åħ¬æ°ĳ": 7782,
      "ire": 7783,
      "Ġfuture": 7784,
      "ĠHowever": 7785,
      "ilar": 7786,
      "umur": 7787,
      "Ġkeras": 7788,
      "UKAN": 7789,
      "ĠLand": 7790,
      "ĠBag": 7791,
      "Ġè¯Ħè®º": 7792,
      "Ġmenghadapi": 7793,
      "hamdul": 7794,
      "ĠCHEM": 7795,
      "ĠÙı": 7796,
      "Opens": 7797,
      "Ġpurch": 7798,
      "Ġcho": 7799,
      "Ag": 7800,
      "åĮħæĭ¬": 7801,
      "Ġbermain": 7802,
      "å®¶åºŃ": 7803,
      "ä¼ĳ": 7804,
      "ĠDasar": 7805,
      "æľĢæĸ°è¯Ħè®º": 7806,
      "Ġwujud": 7807,
      "soalan": 7808,
      "è´ªæ±¡": 7809,
      "Ġkelihatan": 7810,
      "Ġisti": 7811,
      "dren": 7812,
      "å¤ľ": 7813,
      "çŃĶ": 7814,
      "oor": 7815,
      "Ġsubject": 7816,
      "Ġseries": 7817,
      "Apa": 7818,
      "Luar": 7819,
      "ĠØ¯Ø§ÙĨ": 7820,
      "udin": 7821,
      "Ġperusahaan": 7822,
      "ĠAgama": 7823,
      "Ġmotor": 7824,
      "Ġberkembang": 7825,
      "ubungi": 7826,
      "AAATG": 7827,
      "key": 7828,
      "OUT": 7829,
      "ACAC": 7830,
      "ä¸ĢåĲį": 7831,
      "Ġcurrent": 7832,
      "des": 7833,
      "çĨ": 7834,
      "IPS": 7835,
      "eserta": 7836,
      "vest": 7837,
      "Ġcompet": 7838,
      "tional": 7839,
      "åĪĴ": 7840,
      "ï¿½ï¿½ï¿½ï¿½ï¿½ï¿½ï¿½ï¿½ï¿½ï¿½ï¿½ï¿½ï¿½ï¿½ï¿½ï¿½": 7841,
      "Ġ>": 7842,
      "ĠMOHD": 7843,
      "Ġgagal": 7844,
      "Ġabove": 7845,
      "Ġjangk": 7846,
      "ĠHigh": 7847,
      "Ġselesai": 7848,
      "ä»¥åıĬ": 7849,
      "è®¤ä¸º": 7850,
      "aves": 7851,
      "Ġjawapan": 7852,
      "Ġmelebihi": 7853,
      "Ġpemilik": 7854,
      "udio": 7855,
      "ps": 7856,
      "çĬ¯": 7857,
      "JADUAL": 7858,
      "UMLAH": 7859,
      "ä¸įèĥ½": 7860,
      "è¯Ń": 7861,
      "ĠPEM": 7862,
      "JAPAN": 7863,
      "yle": 7864,
      "Ġquality": 7865,
      "Ġsta": 7866,
      "è¡£": 7867,
      "Ġclass": 7868,
      "è¶£": 7869,
      "Ġjatuh": 7870,
      "Ġrelev": 7871,
      "eliling": 7872,
      "ELLUL": 7873,
      "istik": 7874,
      "ildren": 7875,
      "ĠFLO": 7876,
      "Ġnasional": 7877,
      "ato": 7878,
      "pustakaan": 7879,
      "edaan": 7880,
      "Ġrisk": 7881,
      "rup": 7882,
      "Jabatan": 7883,
      "125": 7884,
      "é¢Ħ": 7885,
      "ĠThey": 7886,
      "ansi": 7887,
      "ĠBu": 7888,
      "èĻ½çĦ¶": 7889,
      "Ġmeas": 7890,
      "ĠInstit": 7891,
      "çĬ¶": 7892,
      "wi": 7893,
      "Ø³ÙĬ": 7894,
      "Ġburuk": 7895,
      "ĠRO": 7896,
      "Ġmonths": 7897,
      "Ġà¨ī": 7898,
      "çĸĹ": 7899,
      "ujian": 7900,
      "åĲīç¥¥": 7901,
      "ĠJumlah": 7902,
      "ĠMalay": 7903,
      "egitu": 7904,
      "NE": 7905,
      "ä¹ł": 7906,
      "den": 7907,
      "Ġhard": 7908,
      "Ġmaking": 7909,
      "Ġbertujuan": 7910,
      "åıĸèĩª": 7911,
      "Ġberjumlah": 7912,
      "Ġnasi": 7913,
      "awang": 7914,
      "à®°à®®": 7915,
      "Ġtekanan": 7916,
      "ĠPS": 7917,
      "aksin": 7918,
      "Ġcahaya": 7919,
      "ds": 7920,
      "ANT": 7921,
      "agam": 7922,
      "ä»ĸçļĦ": 7923,
      "Berdasarkan": 7924,
      "ees": 7925,
      "eliti": 7926,
      "ĠEkonomi": 7927,
      "Ø§ÙĬ": 7928,
      "Ġalasan": 7929,
      "ĠABD": 7930,
      "Ġgoing": 7931,
      "ĠKumpulan": 7932,
      "èĭ±åĽ½": 7933,
      "ulus": 7934,
      "Ġcontent": 7935,
      "una": 7936,
      "ĠKorea": 7937,
      "Ġkeep": 7938,
      "Ø§Ø¡": 7939,
      "egiatan": 7940,
      "Ġinvolv": 7941,
      "ĠPutrajaya": 7942,
      "Acc": 7943,
      "ĠCRO": 7944,
      "GAR": 7945,
      "hati": 7946,
      "ĠLain": 7947,
      "box": 7948,
      "Ġ300": 7949,
      "ief": 7950,
      "à¨¡": 7951,
      "Ġhy": 7952,
      "ukung": 7953,
      "ä¼Ĭ": 7954,
      "Ġne": 7955,
      "ĠWalaupun": 7956,
      "ME": 7957,
      "Ġterkenal": 7958,
      "Ġparas": 7959,
      "Ġ56": 7960,
      "waan": 7961,
      "thers": 7962,
      "AMPLE": 7963,
      "ĠEducation": 7964,
      "ĠGalaxy": 7965,
      "Ġusia": 7966,
      "Ġ]": 7967,
      "ademik": 7968,
      "Ġhabis": 7969,
      "Ġ44": 7970,
      "tom": 7971,
      "Ġterg": 7972,
      "SW": 7973,
      "012": 7974,
      "åħ·": 7975,
      "Unnamed": 7976,
      "hr": 7977,
      "ĠMarch": 7978,
      "Ġmember": 7979,
      "Ġbangunan": 7980,
      "arakan": 7981,
      "ĠçĽ¸åħ³": 7982,
      "lek": 7983,
      "iana": 7984,
      "Ġsemangat": 7985,
      "ecially": 7986,
      "è¿ĻéĩĮ": 7987,
      "Ġ2005": 7988,
      "Ġ46": 7989,
      "ĠPENGURUSAN": 7990,
      "elam": 7991,
      "hu": 7992,
      "eksi": 7993,
      "udayaan": 7994,
      "Ġsejumlah": 7995,
      "tle": 7996,
      "CS": 7997,
      "Ġpandem": 7998,
      "iki": 7999,
      "Bacillus": 8000,
      "åģľ": 8001,
      "Ġconsider": 8002,
      "çĥŃæĲľ": 8003,
      "Ġberasal": 8004,
      "idah": 8005,
      "ilak": 8006,
      "YS": 8007,
      "LUM": 8008,
      "ograph": 8009,
      "ready": 8010,
      "ebar": 8011,
      "oper": 8012,
      "elakkan": 8013,
      "Ġsehari": 8014,
      "tiba": 8015,
      "iting": 8016,
      "enarik": 8017,
      "Ġdidapat": 8018,
      "iq": 8019,
      "Ġmeninggalkan": 8020,
      "PERSEKUTUAN": 8021,
      "åıªæĺ¯": 8022,
      "ILAYAH": 8023,
      "åĪĩ": 8024,
      "ĠØ¥": 8025,
      "ERIV": 8026,
      "ä»ħ": 8027,
      "aksikan": 8028,
      "CA": 8029,
      "kurangnya": 8030,
      "ä½łçļĦ": 8031,
      "Ġbook": 8032,
      "alim": 8033,
      "ĠOh": 8034,
      "å¸ĸåŃĲ": 8035,
      "indahan": 8036,
      "Ġmemberit": 8037,
      "SEW": 8038,
      "Ġpejabat": 8039,
      "Ġulama": 8040,
      "Ma": 8041,
      "ĠNilai": 8042,
      "ĠAW": 8043,
      "nn": 8044,
      "krip": 8045,
      "untut": 8046,
      "aged": 8047,
      "åĪĿ": 8048,
      "Ġmodal": 8049,
      "roll": 8050,
      "OLS": 8051,
      "ĠJune": 8052,
      "Ġprestasi": 8053,
      "igi": 8054,
      "IDE": 8055,
      "To": 8056,
      "abungan": 8057,
      "Ġmm": 8058,
      "AAAGC": 8059,
      "Ġ59": 8060,
      "adat": 8061,
      "-------": 8062,
      "Ġaff": 8063,
      "åĵį": 8064,
      "ĠEXAMPLE": 8065,
      "Ġstrategi": 8066,
      "Ġbersih": 8067,
      "ĠKEM": 8068,
      "QA": 8069,
      "Ġianya": 8070,
      "EMBAU": 8071,
      "****": 8072,
      "2007": 8073,
      "berk": 8074,
      "Ġkenapa": 8075,
      "Ġmengadakan": 8076,
      "imbulkan": 8077,
      "2005": 8078,
      "Ġcollec": 8079,
      "ĠNot": 8080,
      "Seti": 8081,
      "etap": 8082,
      "Ġsiasatan": 8083,
      "Ġmembuka": 8084,
      "Ġperalatan": 8085,
      "Ġteknik": 8086,
      "athir": 8087,
      "ERAL": 8088,
      "ĠGRO": 8089,
      "sia": 8090,
      "Ġà®ļà®®": 8091,
      "èĢĮä¸Ķ": 8092,
      "ĠBas": 8093,
      "TANG": 8094,
      "ĠPRIN": 8095,
      "Ġ2004": 8096,
      "ĠVal": 8097,
      "ĠElec": 8098,
      "oba": 8099,
      "ĠSTEEL": 8100,
      "å»ºè®®": 8101,
      "imal": 8102,
      "He": 8103,
      "ĠSetiausaha": 8104,
      "å®£è¨Ģ": 8105,
      "Ġaccess": 8106,
      "ĠAug": 8107,
      "UJIAN": 8108,
      "hab": 8109,
      "angguan": 8110,
      "MD": 8111,
      "æŀĹåĲīç¥¥": 8112,
      "Ġpengajaran": 8113,
      "ĠKej": 8114,
      "105": 8115,
      "WAR": 8116,
      "éĺ²": 8117,
      "Ġengineering": 8118,
      "Ġlaki": 8119,
      "åĮĹ": 8120,
      "atuhi": 8121,
      "etensi": 8122,
      "106": 8123,
      "Ġkanan": 8124,
      "rata": 8125,
      "Ġperintah": 8126,
      "etuju": 8127,
      "AGTG": 8128,
      "ĠSamsung": 8129,
      "Ġbalas": 8130,
      "Ġdengar": 8131,
      "ĠÃĹ": 8132,
      "ENSI": 8133,
      "WP": 8134,
      "tin": 8135,
      "TRUC": 8136,
      "GCTG": 8137,
      "Ġkerusi": 8138,
      "Ġalways": 8139,
      "ĠFar": 8140,
      "ĠDERIV": 8141,
      "ĠTHOSE": 8142,
      "Ġsudut": 8143,
      "ĠEXCE": 8144,
      "èĲ¥": 8145,
      "Ġkedai": 8146,
      "å°ļ": 8147,
      "ulin": 8148,
      "ĠSAINS": 8149,
      "cara": 8150,
      "Ġvehicle": 8151,
      "adangkan": 8152,
      "ĠPerai": 8153,
      "ĠWak": 8154,
      "ĠOut": 8155,
      "ĠEM": 8156,
      "Ġfikir": 8157,
      "ĠSementara": 8158,
      "Ġbrand": 8159,
      "Ġdisc": 8160,
      "ä¾Ŀ": 8161,
      "Ġà¨ħà¨¤": 8162,
      "ĠRos": 8163,
      "Ġsound": 8164,
      "ully": 8165,
      "Ġkitab": 8166,
      "Ġteman": 8167,
      "iy": 8168,
      "åĮ»çĶŁ": 8169,
      "ä¸ªæľĪ": 8170,
      "Ġconn": 8171,
      "erj": 8172,
      "èĽĭ": 8173,
      "Ġmeninggal": 8174,
      "oda": 8175,
      "akna": 8176,
      "Ġ47": 8177,
      "esional": 8178,
      "Ġmenyokong": 8179,
      "erc": 8180,
      "ĠMasa": 8181,
      "ENGINE": 8182,
      "RESH": 8183,
      "ls": 8184,
      "long": 8185,
      "elaksanaan": 8186,
      "âĢĻ,": 8187,
      "ACTC": 8188,
      "ä¸ĢçĽ´": 8189,
      "reg": 8190,
      "èŃ¦æĸ¹": 8191,
      "Ġmenurun": 8192,
      "ĠPREPARED": 8193,
      "angkaian": 8194,
      "Phone": 8195,
      "Ġkm": 8196,
      "ĠHus": 8197,
      "TAI": 8198,
      "Ġstay": 8199,
      "ambarkan": 8200,
      "æİī": 8201,
      "éĿĴ": 8202,
      "Ġpeminat": 8203,
      "æĭīèı²": 8204,
      "dim": 8205,
      "Ġclaim": 8206,
      "ĠJOHOR": 8207,
      "akaran": 8208,
      "ÙĩØ§": 8209,
      "ĠHukum": 8210,
      "Ġberhenti": 8211,
      "KK": 8212,
      "ĠCap": 8213,
      "à®ªà®°": 8214,
      "Ġocc": 8215,
      "Ġäºº": 8216,
      "Ġdibawa": 8217,
      "oyota": 8218,
      "åĩºçİ°": 8219,
      "ĠCOMP": 8220,
      "åĪĹ": 8221,
      "å°½": 8222,
      "Ġsukan": 8223,
      "çĽ®åīį": 8224,
      "utiran": 8225,
      "999": 8226,
      "Ġprep": 8227,
      "IST": 8228,
      "mend": 8229,
      "cayai": 8230,
      "ĠPela": 8231,
      "umbangan": 8232,
      "Ġsaling": 8233,
      "æĶ»": 8234,
      "Ġbody": 8235,
      "Ġumur": 8236,
      "ĠMM": 8237,
      "SE": 8238,
      "ĠDecember": 8239,
      "AGA": 8240,
      "OX": 8241,
      "Ġcukai": 8242,
      "åĩı": 8243,
      "emuan": 8244,
      "Ġpersonal": 8245,
      "eki": 8246,
      "Ġpinjaman": 8247,
      "You": 8248,
      "dir": 8249,
      "ĠPenyel": 8250,
      "Ġep": 8251,
      "çªģ": 8252,
      "hamdulillah": 8253,
      "æĭīèı²åħ¹": 8254,
      "ĠSetelah": 8255,
      "Ġsupp": 8256,
      "ASH": 8257,
      "ĠSHEETS": 8258,
      "ĠPengerusi": 8259,
      "urna": 8260,
      "Ġcinta": 8261,
      "æĭħ": 8262,
      "nis": 8263,
      "Ġdisplay": 8264,
      "Ġsenang": 8265,
      "ances": 8266,
      "æį¢": 8267,
      "Ġà®ħà®±": 8268,
      "kannya": 8269,
      "ĠMENG": 8270,
      "Ġcamp": 8271,
      "incip": 8272,
      "Ġtump": 8273,
      "ARN": 8274,
      "Ġrata": 8275,
      "Ġ62": 8276,
      "ĠHidup": 8277,
      "inding": 8278,
      "acc": 8279,
      "éĢĤ": 8280,
      "æ´²": 8281,
      "ticle": 8282,
      "ĠJawatankuasa": 8283,
      "109": 8284,
      "alakkan": 8285,
      "ĠPD": 8286,
      "riteria": 8287,
      "Ġbukanlah": 8288,
      "OLOGI": 8289,
      "HERE": 8290,
      "à®İ": 8291,
      "ä¹ħ": 8292,
      "eries": 8293,
      "èģĮ": 8294,
      "çļĦä¸Ģ": 8295,
      "Ġnormal": 8296,
      "209": 8297,
      "ENGAH": 8298,
      "rist": 8299,
      "çº·": 8300,
      "Ġbagaimanapun": 8301,
      "Ġberfungsi": 8302,
      "iwa": 8303,
      "Ġfilm": 8304,
      "ICES": 8305,
      "ĠIslamic": 8306,
      "æķĪ": 8307,
      "104": 8308,
      "Perumahan": 8309,
      "pecially": 8310,
      "Ġà®®à®ķ": 8311,
      "TACG": 8312,
      "ĠâĢĿ": 8313,
      "ĠæĢ§æ¬²å¼ºçĶ·åıĭä¸įæĥľä»ĺå¥¹éĴ±ä¹Łè¦ģåķª": 8314,
      "ĠBand": 8315,
      "bility": 8316,
      "ditional": 8317,
      "çĭĹ": 8318,
      "endaki": 8319,
      "daripada": 8320,
      "éĴŁ": 8321,
      "yid": 8322,
      "çĶļ": 8323,
      "ĠEks": 8324,
      "ĠBusiness": 8325,
      "emang": 8326,
      "ç»´": 8327,
      "PI": 8328,
      "nes": 8329,
      "å¹²": 8330,
      "Ġ`": 8331,
      "ĠBERHAD": 8332,
      "Ġ54": 8333,
      "iber": 8334,
      "bnu": 8335,
      "APTER": 8336,
      "èĭ¥": 8337,
      "arif": 8338,
      "Ġpengan": 8339,
      "ĠPAPERBOARD": 8340,
      "Ġmeter": 8341,
      "Ġgaji": 8342,
      "ket": 8343,
      "Ġkategori": 8344,
      "Ġamalan": 8345,
      "Ġà®ĩà®²": 8346,
      "Ġbreak": 8347,
      "Ġsayang": 8348,
      "Ġpasar": 8349,
      "TAIL": 8350,
      "Ġwrit": 8351,
      "ehatan": 8352,
      "ĠSPP": 8353,
      "Bandar": 8354,
      "Ġknowledge": 8355,
      "å·´æĭ¿": 8356,
      "iarkan": 8357,
      "Ġ49": 8358,
      "éģĩ": 8359,
      "ĠJuly": 8360,
      "thing": 8361,
      "phone": 8362,
      "ENTR": 8363,
      "aras": 8364,
      "maxis": 8365,
      "æĲŃ": 8366,
      "éļĨ": 8367,
      "108": 8368,
      "Ġdirect": 8369,
      "ä¸ĵåĮº": 8370,
      "ðĿĲ": 8371,
      "ECT": 8372,
      "Ġsepat": 8373,
      "ĠKN": 8374,
      "å·´æĭ¿é©¬": 8375,
      "Ġberi": 8376,
      "Ġkit": 8377,
      "ĠSoalan": 8378,
      "Ġkebanyakan": 8379,
      "ĠEnglish": 8380,
      "Ġkad": 8381,
      "ict": 8382,
      "ittle": 8383,
      "æł¹æį®": 8384,
      "ĠUr": 8385,
      "waktu": 8386,
      "åĢĴçº³åĲī": 8387,
      "opi": 8388,
      "æĪĲä¸º": 8389,
      "FA": 8390,
      "Ġtimb": 8391,
      "åħ¬æ°ĳå®£è¨Ģ": 8392,
      "è¶³": 8393,
      "dip": 8394,
      "rayani": 8395,
      "èĳĹ": 8396,
      "Ġbanjir": 8397,
      "ongsikan": 8398,
      "Ġmight": 8399,
      "hubungan": 8400,
      "Ġæľ¬åĳ¨æľĢçĥŃæĸĩç«ł": 8401,
      "fit": 8402,
      "entangan": 8403,
      "Ġpertanyaan": 8404,
      "à®°à®£": 8405,
      "Ġrev": 8406,
      "Ġmethod": 8407,
      "antaran": 8408,
      "Ġbola": 8409,
      "Ġproduct": 8410,
      "BAH": 8411,
      "Ġmenawarkan": 8412,
      "Ġbertindak": 8413,
      "ĠSatu": 8414,
      "EMBER": 8415,
      "Ġext": 8416,
      "Ġru": 8417,
      "Muh": 8418,
      "sue": 8419,
      "uty": 8420,
      "lian": 8421,
      "æĭ©": 8422,
      "Ġì": 8423,
      "éŃ": 8424,
      "memp": 8425,
      "Ġpasal": 8426,
      "Ġ000": 8427,
      "Ġmean": 8428,
      "ï¼īï¼Į": 8429,
      "Ġkapal": 8430,
      "ENGINEERING": 8431,
      "ulakan": 8432,
      "Ġinstitusi": 8433,
      "ĠELECTR": 8434,
      "ĠKetika": 8435,
      "Ġsikit": 8436,
      "ificant": 8437,
      "Ġdimana": 8438,
      "ĠState": 8439,
      "anjaya": 8440,
      "Ġnear": 8441,
      "isk": 8442,
      "é¼": 8443,
      "%.": 8444,
      "Ġbunyi": 8445,
      "ashion": 8446,
      "Ġimplement": 8447,
      "Ġfocus": 8448,
      "ĠØŃ": 8449,
      "aching": 8450,
      "etakkan": 8451,
      "ĠØ¬": 8452,
      "æĻ®": 8453,
      "ejahter": 8454,
      "ĠNama": 8455,
      "Ġbaju": 8456,
      "ĠWOR": 8457,
      "à®¤à®©": 8458,
      "èĸ": 8459,
      "ĠKin": 8460,
      "éĻ¤äºĨ": 8461,
      "à®¤à®ª": 8462,
      "ØªØ§": 8463,
      "IDIKAN": 8464,
      "aring": 8465,
      "ĠThailand": 8466,
      "Ġdibayar": 8467,
      "Tak": 8468,
      "Ġdihar": 8469,
      "æ¦": 8470,
      "åĶ®": 8471,
      "lete": 8472,
      "menj": 8473,
      "akni": 8474,
      "resh": 8475,
      "back": 8476,
      "199": 8477,
      "æĮĩåĩº": 8478,
      "awalan": 8479,
      "ĠSof": 8480,
      "Ġpri": 8481,
      "Ġtuan": 8482,
      "ols": 8483,
      "Ġbatu": 8484,
      "ĠAdakah": 8485,
      "Twitter": 8486,
      "Ġba": 8487,
      "INES": 8488,
      "ç«¥": 8489,
      "Ġkemudahan": 8490,
      "Ġunderst": 8491,
      "ä¹ĭåĲİ": 8492,
      "æĹı": 8493,
      "satu": 8494,
      "Ġself": 8495,
      "Ġbenef": 8496,
      "ament": 8497,
      "æĸŃ": 8498,
      "BAB": 8499,
      "Ġmeliputi": 8500,
      "TIADA": 8501,
      "Ġtertinggi": 8502,
      "Ġoil": 8503,
      "Ġsuccess": 8504,
      "ç´ł": 8505,
      "umat": 8506,
      "ustaka": 8507,
      "ĠEmp": 8508,
      "Mus": 8509,
      "rep": 8510,
      "ĠSukan": 8511,
      "fo": 8512,
      "Yang": 8513,
      "AJAAN": 8514,
      "Ġmut": 8515,
      "Jadual": 8516,
      "Ġvarious": 8517,
      "Ġuntil": 8518,
      "istered": 8519,
      "ï¼Łï¼Ł": 8520,
      "Sc": 8521,
      "ukim": 8522,
      "ĠAntara": 8523,
      "ä¼ĺ": 8524,
      "ä¸Ĭä¸Ģç¯ĩ": 8525,
      "Ġkayu": 8526,
      "KE": 8527,
      "Ġleast": 8528,
      "Ġberkuasa": 8529,
      "okumen": 8530,
      "enggaraan": 8531,
      "iversitas": 8532,
      "ĠJenis": 8533,
      "umbang": 8534,
      "ening": 8535,
      "åªĴä½ĵ": 8536,
      "éĵ¶": 8537,
      "ä¸ĭä¸Ģç¯ĩ": 8538,
      "ACE": 8539,
      "Ġcantik": 8540,
      "emua": 8541,
      "fir": 8542,
      "ĠKOM": 8543,
      "Ċĉ": 8544,
      "ĠBUT": 8545,
      "åº§": 8546,
      "çīĮ": 8547,
      "111": 8548,
      "enai": 8549,
      "ä»Ļ": 8550,
      "ĠTi": 8551,
      "APORAN": 8552,
      "æ½": 8553,
      "ï¼ģâĢĿ": 8554,
      "Ġberarti": 8555,
      "Ġlayak": 8556,
      "ĊĠĠĠĠĠĠĠ": 8557,
      "ething": 8558,
      "Ġayam": 8559,
      "ĠWEIGHT": 8560,
      "inet": 8561,
      "Ġshows": 8562,
      "Ġterletak": 8563,
      "net": 8564,
      "alin": 8565,
      "ĠSecara": 8566,
      "Ġpendekatan": 8567,
      "Dia": 8568,
      "Ùĭ": 8569,
      "ĠHad": 8570,
      "Ġmenghar": 8571,
      "Ġà¨°": 8572,
      "VI": 8573,
      "ĠSiti": 8574,
      "MOH": 8575,
      "ĠPenj": 8576,
      "ĠProjek": 8577,
      "Ġmengandungi": 8578,
      "Ġrambut": 8579,
      "Ġwhy": 8580,
      "sive": 8581,
      "rin": 8582,
      "ieve": 8583,
      "ĠTANAH": 8584,
      "Pel": 8585,
      "ĠBl": 8586,
      "ĠEXCEEDING": 8587,
      "Ġkondisi": 8588,
      "impulan": 8589,
      "utuskan": 8590,
      "Ġberapa": 8591,
      "Ġproduction": 8592,
      "agon": 8593,
      "éĤ£ä¹Ī": 8594,
      "Ġbunga": 8595,
      "Ġtanaman": 8596,
      "ĠMungkin": 8597,
      "Ġhutan": 8598,
      "çŁŃ": 8599,
      "opyr": 8600,
      "éĻħ": 8601,
      "annel": 8602,
      "ORIES": 8603,
      "TTTAA": 8604,
      "Ġalready": 8605,
      "ĠELSEW": 8606,
      "ĠELSEWHERE": 8607,
      "ucapkan": 8608,
      "lahan": 8609,
      "URE": 8610,
      "SARAWAK": 8611,
      "ÙħØ§": 8612,
      "nik": 8613,
      "Ġkiri": 8614,
      "Ġtanggungjawab": 8615,
      "under": 8616,
      "Ġmenyelesaikan": 8617,
      "kon": 8618,
      "ijil": 8619,
      "Jadi": 8620,
      "ĠCor": 8621,
      "Ġcent": 8622,
      "ografi": 8623,
      "Ġhuruf": 8624,
      "Ġkawalan": 8625,
      "cher": 8626,
      "itung": 8627,
      "é¥Ń": 8628,
      "opyright": 8629,
      "ainkan": 8630,
      "è¿Ļæĺ¯": 8631,
      "ĠLaut": 8632,
      "ĠINCLUD": 8633,
      "ĠIV": 8634,
      "TTAG": 8635,
      "Rajah": 8636,
      "How": 8637,
      "Ġmisalnya": 8638,
      "ags": 8639,
      "enalan": 8640,
      "Ġsent": 8641,
      "Ġ75": 8642,
      "masyarakat": 8643,
      "ified": 8644,
      "cont": 8645,
      "Ġhaving": 8646,
      "èµ·æĿ¥": 8647,
      "entral": 8648,
      "æĩ": 8649,
      "åĲĮæĹ¶": 8650,
      "æŀģ": 8651,
      "ä»»ä½ķ": 8652,
      "Ġadded": 8653,
      "220": 8654,
      "uasan": 8655,
      "å¿Ĺ": 8656,
      "Ġmenik": 8657,
      "juga": 8658,
      "ĠPAR": 8659,
      "hluk": 8660,
      "WAN": 8661,
      "Ġmenya": 8662,
      "iayaan": 8663,
      "Ø¯ÙĬ": 8664,
      "åĻ¨": 8665,
      "Ġge": 8666,
      "Ġterlebih": 8667,
      "ĠUnited": 8668,
      "Ġskills": 8669,
      "ĠUp": 8670,
      "Ġsemuanya": 8671,
      "pol": 8672,
      "Ġpermintaan": 8673,
      "GRAM": 8674,
      "cayaan": 8675,
      "çĵ": 8676,
      "ANS": 8677,
      "Ġsaham": 8678,
      "EKN": 8679,
      "Ġdistr": 8680,
      "Ġnegatif": 8681,
      "Ġperistiwa": 8682,
      "essment": 8683,
      "ATIVES": 8684,
      "jika": 8685,
      "Ġsebagian": 8686,
      "Ġincrease": 8687,
      "Ġà®ħà®Ł": 8688,
      "vey": 8689,
      "Ġimm": 8690,
      "Ġradi": 8691,
      "ekolah": 8692,
      "Kita": 8693,
      "airan": 8694,
      "ACGC": 8695,
      "ĠMasyarakat": 8696,
      "Ġusah": 8697,
      "ĠUmum": 8698,
      "ä¸įå°ĳ": 8699,
      "Ġcars": 8700,
      "Ġdilaporkan": 8701,
      "osed": 8702,
      "à©ĭà¨Ĥ": 8703,
      "ĠPertama": 8704,
      "Ġpal": 8705,
      "ĠTab": 8706,
      "åľ¨è®ºåĿĽ": 8707,
      "Ġorig": 8708,
      "ĠPublic": 8709,
      "ox": 8710,
      "ä¸Ģæł·": 8711,
      "ä¼¼": 8712,
      "hib": 8713,
      "æ¹¾": 8714,
      "eraan": 8715,
      "Ġ2000": 8716,
      "gantikan": 8717,
      "Ġvehicles": 8718,
      "ĠFIL": 8719,
      "anakala": 8720,
      "Ġpembinaan": 8721,
      "ÂłĊ": 8722,
      "è¯Ĩ": 8723,
      "UMIN": 8724,
      "Ġsepatutnya": 8725,
      "rt": 8726,
      "Date": 8727,
      "Ġmau": 8728,
      "æĹ¶äºĭ": 8729,
      "warna": 8730,
      "ĠFO": 8731,
      "anja": 8732,
      "adiah": 8733,
      "Ġstrong": 8734,
      "çİĩ": 8735,
      "Ġperp": 8736,
      "Ġdiketahui": 8737,
      "okrasi": 8738,
      "ĠPET": 8739,
      "éĻĲ": 8740,
      "'.": 8741,
      "omunikasi": 8742,
      "elap": 8743,
      "ÙĪÙħ": 8744,
      "'(": 8745,
      "Ġmenolak": 8746,
      "åľ¨è®ºåĿĽçķĻè¨Ģ": 8747,
      "Ġmembayar": 8748,
      "Total": 8749,
      "Ġmengak": 8750,
      "agang": 8751,
      "Ġlay": 8752,
      "ROL": 8753,
      "uruhanjaya": 8754,
      "Ġperkongsian": 8755,
      "Ġequip": 8756,
      "Ġold": 8757,
      "Ġcustomers": 8758,
      "tah": 8759,
      "Ġà®ĩà®©": 8760,
      "Ġespecially": 8761,
      "åĪ°äºĨ": 8762,
      "Ġrekod": 8763,
      "entera": 8764,
      "Ġdrama": 8765,
      "oa": 8766,
      "Ġbergantung": 8767,
[...]
